{
  "version": "1.0",
  "truncation": null,
  "padding": null,
  "added_tokens": [
      {
          "id": 0,
          "special": true,
          "content": "[STOP]",
          "single_word": false,
          "lstrip": false,
          "rstrip": false,
          "normalized": false
      },
      {
          "id": 1,
          "special": true,
          "content": "[UNK]",
          "single_word": false,
          "lstrip": false,
          "rstrip": false,
          "normalized": false
      },
      {
          "id": 2,
          "special": true,
          "content": "[SPACE]",
          "single_word": false,
          "lstrip": false,
          "rstrip": false,
          "normalized": false
      },
      {
          "id": 40,
          "special": true,
          "content": "[yue]",
          "single_word": false,
          "lstrip": false,
          "rstrip": false,
          "normalized": false
      }
  ],
  "normalizer": null,
  "pre_tokenizer": {
      "type": "Whitespace"
  },
  "post_processor": null,
  "decoder": null,
  "model": {
      "type": "BPE",
      "dropout": null,
      "unk_token": "[UNK]",
      "continuing_subword_prefix": null,
      "end_of_word_suffix": null,
      "fuse_unk": false,
      "vocab": {
        "[STOP]": 0,
        "[UNK]": 1,
        "[SPACE]": 2,
  "$": 3,
  "%": 4,
  "&": 5,
  "'": 6,
  "(": 7,
  ")": 8,
  "*": 9,
  "+": 10,
  ",": 11,
  "-": 12,
  ".": 13,
  "/": 14,
  "0": 15,
  "1": 16,
  "2": 17,
  "3": 18,
  "4": 19,
  "5": 20,
  "6": 21,
  "7": 22,
  "8": 23,
  "9": 24,
  ":": 25,
  ";": 26,
  "<": 27,
  "=": 28,
  ">": 29,
  "?": 30,
  "@": 31,
  "A": 32,
  "B": 33,
  "C": 34,
  "D": 35,
  "E": 36,
  "F": 37,
  "G": 38,
  "H": 39,
  "I": 40,
  "J": 41,
  "K": 42,
  "L": 43,
  "M": 44,
  "N": 45,
  "O": 46,
  "P": 47,
  "Q": 48,
  "R": 49,
  "S": 50,
  "T": 51,
  "U": 52,
  "V": 53,
  "W": 54,
  "X": 55,
  "Y": 56,
  "Z": 57,
  "[": 58,
  "\\": 59,
  "]": 60,
  "^": 61,
  "_": 62,
  "`": 63,
  "a": 64,
  "b": 65,
  "c": 66,
  "d": 67,
  "e": 68,
  "f": 69,
  "g": 70,
  "h": 71,
  "i": 72,
  "j": 73,
  "k": 74,
  "l": 75,
  "m": 76,
  "n": 77,
  "o": 78,
  "p": 79,
  "q": 80,
  "r": 81,
  "s": 82,
  "t": 83,
  "u": 84,
  "v": 85,
  "w": 86,
  "x": 87,
  "y": 88,
  "z": 89,
  "{": 90,
  "|": 91,
  "}": 92,
  "~": 93,
  "¡": 94,
  "¢": 95,
  "£": 96,
  "¤": 97,
  "¥": 98,
  "¦": 99,
  "§": 100,
  "¨": 101,
  "©": 102,
  "ª": 103,
  "«": 104,
  "¬": 105,
  "®": 106,
  "¯": 107,
  "°": 108,
  "±": 109,
  "²": 110,
  "³": 111,
  "´": 112,
  "µ": 113,
  "¶": 114,
  "·": 115,
  "¸": 116,
  "¹": 117,
  "º": 118,
  "»": 119,
  "!": 120,
  "#": 121,
  "\"": 122,
  "¿": 123,
  "À": 124,
  "Á": 125,
  "Â": 126,
  "Ã": 127,
  "Ä": 128,
  "Å": 129,
  "Æ": 130,
  "Ç": 131,
  "È": 132,
  "É": 133,
  "Ê": 134,
  "Ë": 135,
  "Ì": 136,
  "Í": 137,
  "Î": 138,
  "Ï": 139,
  "Ð": 140,
  "Ñ": 141,
  "Ò": 142,
  "Ó": 143,
  "Ô": 144,
  "Õ": 145,
  "Ö": 146,
  "×": 147,
  "Ø": 148,
  "Ù": 149,
  "Ú": 150,
  "Û": 151,
  "Ü": 152,
  "Ý": 153,
  "Þ": 154,
  "ß": 155,
  "à": 156,
  "á": 157,
  "â": 158,
  "ã": 159,
  "ä": 160,
  "å": 161,
  "æ": 162,
  "ç": 163,
  "è": 164,
  "é": 165,
  "ê": 166,
  "ë": 167,
  "ì": 168,
  "í": 169,
  "î": 170,
  "ï": 171,
  "ð": 172,
  "ñ": 173,
  "ò": 174,
  "ó": 175,
  "ô": 176,
  "õ": 177,
  "ö": 178,
  "÷": 179,
  "ø": 180,
  "ù": 181,
  "ú": 182,
  "û": 183,
  "ü": 184,
  "ý": 185,
  "þ": 186,
  "ÿ": 187,
  "Ā": 188,
  "ā": 189,
  "Ă": 190,
  "ă": 191,
  "Ą": 192,
  "ą": 193,
  "Ć": 194,
  "ć": 195,
  "Ĉ": 196,
  "ĉ": 197,
  "Ċ": 198,
  "ċ": 199,
  "Č": 200,
  "č": 201,
  "Ď": 202,
  "ď": 203,
  "Đ": 204,
  "đ": 205,
  "Ē": 206,
  "ē": 207,
  "Ĕ": 208,
  "ĕ": 209,
  "Ė": 210,
  "ė": 211,
  "Ę": 212,
  "ę": 213,
  "Ě": 214,
  "ě": 215,
  "Ĝ": 216,
  "ĝ": 217,
  "Ğ": 218,
  "ğ": 219,
  "Ġ": 220,
  "ġ": 221,
  "Ģ": 222,
  "ģ": 223,
  "Ĥ": 224,
  "ĥ": 225,
  "Ħ": 226,
  "ħ": 227,
  "Ĩ": 228,
  "ĩ": 229,
  "Ī": 230,
  "ī": 231,
  "Ĭ": 232,
  "ĭ": 233,
  "Į": 234,
  "į": 235,
  "İ": 236,
  "ı": 237,
  "Ĳ": 238,
  "ĳ": 239,
  "Ĵ": 240,
  "ĵ": 241,
  "Ķ": 242,
  "ķ": 243,
  "ĸ": 244,
  "Ĺ": 245,
  "ĺ": 246,
  "Ļ": 247,
  "ļ": 248,
  "Ľ": 249,
  "ľ": 250,
  "Ŀ": 251,
  "ŀ": 252,
  "Ł": 253,
  "ł": 254,
  "Ń": 255,
  "aa": 256,
  "ng": 257,
  "oe": 258,
  "eo": 259,
  "yu": 260,
  "ai": 261,
  "an": 262,
  "aai": 263,
  "at": 264,
  "gw": 265,
  "ok": 266,
  "ong": 267,
  "aan": 268,
  "aat": 269,
  "au": 270,
  "ang": 271,
  "aak": 272,
  "aang": 273,
  "ik": 274,
  "it": 275,
  "ing": 276,
  "uk": 277,
  "ung": 278,
  "aau": 279,
  "ak": 280,
  "am": 281,
  "iu": 282,
  "in": 283,
  "ou": 284,
  "ap": 285,
  "eng": 286,
  "kw": 287,
  "oi": 288,
  "aap": 289,
  "ei": 290,
  "aam": 291,
  "im": 292,
  "ip": 293,
  "eoi": 294,
  "yun": 295,
  "ek": 296,
  "un": 297,
  "oeng": 298,
  "yut": 299,
  "ui": 300,
  "oek": 301,
  "ut": 302,
  "eon": 303,
  "eot": 304,
  "oei": 305,
  "on": 306,
  "we": 307,
  "de": 308,
  "ep": 309,
  "go": 310,
  "ho": 311,
  "le": 312,
  "loe": 313,
  "pe": 314,
  "soe": 315,
  "be": 316,
  "bo": 317,
  "bu": 318,
  "baa": 319,
  "bai": 320,
  "ban": 321,
  "baai": 322,
  "bat": 323,
  "bok": 324,
  "bong": 325,
  "baan": 326,
  "baat": 327,
  "bau": 328,
  "bang": 329,
  "baak": 330,
  "baang": 331,
  "bik": 332,
  "bit": 333,
  "bing": 334,
  "buk": 335,
  "bung": 336,
  "baau": 337,
  "bak": 338,
  "bam": 339,
  "biu": 340,
  "bin": 341,
  "bou": 342,
  "beng": 343,
  "bei": 344,
  "bek": 345,
  "bun": 346,
  "bui": 347,
  "but": 348,
  "ce": 349,
  "ci": 350,
  "co": 351,
  "caa": 352,
  "cyu": 353,
  "cai": 354,
  "can": 355,
  "caai": 356,
  "cat": 357,
  "cok": 358,
  "cong": 359,
  "caan": 360,
  "caat": 361,
  "cau": 362,
  "cang": 363,
  "caak": 364,
  "caang": 365,
  "cik": 366,
  "cit": 367,
  "cing": 368,
  "cuk": 369,
  "cung": 370,
  "caau": 371,
  "cak": 372,
  "cam": 373,
  "ciu": 374,
  "cin": 375,
  "cou": 376,
  "cap": 377,
  "ceng": 378,
  "coi": 379,
  "caap": 380,
  "caam": 381,
  "cim": 382,
  "cip": 383,
  "ceoi": 384,
  "cyun": 385,
  "cek": 386,
  "cun": 387,
  "coeng": 388,
  "cyut": 389,
  "coek": 390,
  "ceon": 391,
  "ceot": 392,
  "coei": 393,
  "di": 394,
  "do": 395,
  "daa": 396,
  "doe": 397,
  "dai": 398,
  "dan": 399,
  "daai": 400,
  "dat": 401,
  "dok": 402,
  "dong": 403,
  "daan": 404,
  "daat": 405,
  "dau": 406,
  "dang": 407,
  "daak": 408,
  "daang": 409,
  "dik": 410,
  "dit": 411,
  "ding": 412,
  "duk": 413,
  "dung": 414,
  "daau": 415,
  "dak": 416,
  "dam": 417,
  "diu": 418,
  "din": 419,
  "dou": 420,
  "dap": 421,
  "deng": 422,
  "doi": 423,
  "daap": 424,
  "dei": 425,
  "daam": 426,
  "dim": 427,
  "dip": 428,
  "deoi": 429,
  "dyun": 430,
  "dek": 431,
  "doeng": 432,
  "dyut": 433,
  "doek": 434,
  "deon": 435,
  "deot": 436,
  "fe": 437,
  "fo": 438,
  "fu": 439,
  "faa": 440,
  "fai": 441,
  "fan": 442,
  "faai": 443,
  "fat": 444,
  "fok": 445,
  "fong": 446,
  "faan": 447,
  "faat": 448,
  "fau": 449,
  "fang": 450,
  "faak": 451,
  "fik": 452,
  "fit": 453,
  "fing": 454,
  "fuk": 455,
  "fung": 456,
  "faau": 457,
  "fiu": 458,
  "fei": 459,
  "fun": 460,
  "fui": 461,
  "fut": 462,
  "ge": 463,
  "gi": 464,
  "gu": 465,
  "gaa": 466,
  "goe": 467,
  "gai": 468,
  "gan": 469,
  "gaai": 470,
  "gat": 471,
  "gok": 472,
  "gong": 473,
  "gaan": 474,
  "gaat": 475,
  "gau": 476,
  "gang": 477,
  "gaak": 478,
  "gaang": 479,
  "gik": 480,
  "git": 481,
  "ging": 482,
  "guk": 483,
  "gung": 484,
  "gaau": 485,
  "gak": 486,
  "gam": 487,
  "giu": 488,
  "gin": 489,
  "gou": 490,
  "gap": 491,
  "geng": 492,
  "goi": 493,
  "gaap": 494,
  "gei": 495,
  "gaam": 496,
  "gim": 497,
  "gip": 498,
  "geoi": 499,
  "gyun": 500,
  "gun": 501,
  "goeng": 502,
  "gyut": 503,
  "gui": 504,
  "goek": 505,
  "gut": 506,
  "goei": 507,
  "gon": 508,
  "gep": 509,
  "he": 510,
  "hi": 511,
  "hm": 512,
  "haa": 513,
  "hng": 514,
  "hoe": 515,
  "hai": 516,
  "han": 517,
  "haai": 518,
  "hat": 519,
  "hok": 520,
  "hong": 521,
  "haan": 522,
  "haat": 523,
  "hau": 524,
  "hang": 525,
  "haak": 526,
  "haang": 527,
  "hit": 528,
  "hing": 529,
  "huk": 530,
  "hung": 531,
  "haau": 532,
  "hak": 533,
  "ham": 534,
  "hiu": 535,
  "hin": 536,
  "hou": 537,
  "hap": 538,
  "heng": 539,
  "hoi": 540,
  "haap": 541,
  "hei": 542,
  "haam": 543,
  "him": 544,
  "hip": 545,
  "heoi": 546,
  "hyun": 547,
  "hek": 548,
  "hoeng": 549,
  "hyut": 550,
  "hon": 551,
  "je": 552,
  "ji": 553,
  "jo": 554,
  "jaa": 555,
  "jyu": 556,
  "jai": 557,
  "jan": 558,
  "jaai": 559,
  "jat": 560,
  "jau": 561,
  "jaak": 562,
  "jaang": 563,
  "jik": 564,
  "jit": 565,
  "jing": 566,
  "juk": 567,
  "jung": 568,
  "jaau": 569,
  "jam": 570,
  "jiu": 571,
  "jin": 572,
  "jap": 573,
  "jeng": 574,
  "jaap": 575,
  "jim": 576,
  "jip": 577,
  "jeoi": 578,
  "jyun": 579,
  "joeng": 580,
  "jyut": 581,
  "joek": 582,
  "jeon": 583,
  "ke": 584,
  "ki": 585,
  "ko": 586,
  "ku": 587,
  "kaa": 588,
  "koe": 589,
  "kai": 590,
  "kan": 591,
  "kaai": 592,
  "kat": 593,
  "kok": 594,
  "kong": 595,
  "kaan": 596,
  "kaat": 597,
  "kau": 598,
  "kang": 599,
  "kaak": 600,
  "kik": 601,
  "kit": 602,
  "king": 603,
  "kuk": 604,
  "kung": 605,
  "kaau": 606,
  "kak": 607,
  "kam": 608,
  "kiu": 609,
  "kin": 610,
  "kap": 611,
  "koi": 612,
  "kaap": 613,
  "kei": 614,
  "kaam": 615,
  "kim": 616,
  "kip": 617,
  "keoi": 618,
  "kyun": 619,
  "kek": 620,
  "koeng": 621,
  "kyut": 622,
  "kui": 623,
  "koek": 624,
  "kut": 625,
  "kep": 626,
  "li": 627,
  "lo": 628,
  "laa": 629,
  "lai": 630,
  "lan": 631,
  "laai": 632,
  "lat": 633,
  "lok": 634,
  "long": 635,
  "laan": 636,
  "laat": 637,
  "lau": 638,
  "lang": 639,
  "laak": 640,
  "laang": 641,
  "lik": 642,
  "lit": 643,
  "ling": 644,
  "luk": 645,
  "lung": 646,
  "laau": 647,
  "lak": 648,
  "lam": 649,
  "liu": 650,
  "lin": 651,
  "lou": 652,
  "lap": 653,
  "leng": 654,
  "loi": 655,
  "laap": 656,
  "lei": 657,
  "laam": 658,
  "lim": 659,
  "lip": 660,
  "leoi": 661,
  "lyun": 662,
  "lek": 663,
  "lun": 664,
  "loeng": 665,
  "lyut": 666,
  "loek": 667,
  "leon": 668,
  "leot": 669,
  "loei": 670,
  "me": 671,
  "mi": 672,
  "mo": 673,
  "maa": 674,
  "mai": 675,
  "man": 676,
  "maai": 677,
  "mat": 678,
  "mok": 679,
  "mong": 680,
  "maan": 681,
  "maat": 682,
  "mau": 683,
  "mang": 684,
  "maak": 685,
  "maang": 686,
  "mik": 687,
  "mit": 688,
  "ming": 689,
  "muk": 690,
  "mung": 691,
  "maau": 692,
  "mak": 693,
  "mam": 694,
  "miu": 695,
  "min": 696,
  "mou": 697,
  "meng": 698,
  "moi": 699,
  "mei": 700,
  "mun": 701,
  "mui": 702,
  "mut": 703,
  "ne": 704,
  "ni": 705,
  "no": 706,
  "naa": 707,
  "nai": 708,
  "nan": 709,
  "naai": 710,
  "nat": 711,
  "nok": 712,
  "nong": 713,
  "naan": 714,
  "naat": 715,
  "nau": 716,
  "nang": 717,
  "naang": 718,
  "nik": 719,
  "nit": 720,
  "ning": 721,
  "nuk": 722,
  "nung": 723,
  "naau": 724,
  "nak": 725,
  "nam": 726,
  "niu": 727,
  "nin": 728,
  "nou": 729,
  "nap": 730,
  "neng": 731,
  "noi": 732,
  "naap": 733,
  "nei": 734,
  "naam": 735,
  "nim": 736,
  "nip": 737,
  "neoi": 738,
  "nyun": 739,
  "noeng": 740,
  "neot": 741,
  "noei": 742,
  "om": 743,
  "po": 744,
  "paa": 745,
  "pai": 746,
  "pan": 747,
  "paai": 748,
  "pat": 749,
  "pok": 750,
  "pong": 751,
  "paan": 752,
  "paat": 753,
  "pau": 754,
  "pang": 755,
  "paak": 756,
  "paang": 757,
  "pik": 758,
  "pit": 759,
  "ping": 760,
  "puk": 761,
  "pung": 762,
  "paau": 763,
  "pak": 764,
  "piu": 765,
  "pin": 766,
  "pou": 767,
  "peng": 768,
  "pei": 769,
  "pek": 770,
  "pun": 771,
  "pui": 772,
  "put": 773,
  "se": 774,
  "si": 775,
  "so": 776,
  "saa": 777,
  "syu": 778,
  "sai": 779,
  "san": 780,
  "saai": 781,
  "sat": 782,
  "sok": 783,
  "song": 784,
  "saan": 785,
  "saat": 786,
  "sau": 787,
  "sang": 788,
  "saak": 789,
  "saang": 790,
  "sik": 791,
  "sit": 792,
  "sing": 793,
  "suk": 794,
  "sung": 795,
  "saau": 796,
  "sak": 797,
  "sam": 798,
  "siu": 799,
  "sin": 800,
  "sou": 801,
  "sap": 802,
  "seng": 803,
  "soi": 804,
  "saap": 805,
  "sei": 806,
  "saam": 807,
  "sim": 808,
  "sip": 809,
  "seoi": 810,
  "syun": 811,
  "sek": 812,
  "soeng": 813,
  "syut": 814,
  "soek": 815,
  "seon": 816,
  "seot": 817,
  "ti": 818,
  "to": 819,
  "taa": 820,
  "toe": 821,
  "tai": 822,
  "tan": 823,
  "taai": 824,
  "tat": 825,
  "tok": 826,
  "tong": 827,
  "taan": 828,
  "taat": 829,
  "tau": 830,
  "tang": 831,
  "taang": 832,
  "tik": 833,
  "tit": 834,
  "ting": 835,
  "tuk": 836,
  "tung": 837,
  "taau": 838,
  "tam": 839,
  "tiu": 840,
  "tin": 841,
  "tou": 842,
  "tap": 843,
  "teng": 844,
  "toi": 845,
  "taap": 846,
  "taam": 847,
  "tim": 848,
  "tip": 849,
  "teoi": 850,
  "tyun": 851,
  "tek": 852,
  "tyut": 853,
  "teon": 854,
  "wi": 855,
  "wo": 856,
  "wu": 857,
  "waa": 858,
  "wai": 859,
  "wan": 860,
  "waai": 861,
  "wat": 862,
  "wok": 863,
  "wong": 864,
  "waan": 865,
  "waat": 866,
  "wau": 867,
  "wang": 868,
  "waak": 869,
  "waang": 870,
  "wik": 871,
  "wing": 872,
  "wak": 873,
  "wun": 874,
  "wui": 875,
  "wut": 876,
  "ze": 877,
  "zi": 878,
  "zo": 879,
  "zaa": 880,
  "zoe": 881,
  "zyu": 882,
  "zai": 883,
  "zan": 884,
  "zaai": 885,
  "zat": 886,
  "zok": 887,
  "zong": 888,
  "zaan": 889,
  "zaat": 890,
  "zau": 891,
  "zang": 892,
  "zaak": 893,
  "zaang": 894,
  "zik": 895,
  "zit": 896,
  "zing": 897,
  "zuk": 898,
  "zung": 899,
  "zaau": 900,
  "zak": 901,
  "zam": 902,
  "ziu": 903,
  "zin": 904,
  "zou": 905,
  "zap": 906,
  "zeng": 907,
  "zoi": 908,
  "zaap": 909,
  "zaam": 910,
  "zim": 911,
  "zip": 912,
  "zeoi": 913,
  "zyun": 914,
  "zek": 915,
  "zoeng": 916,
  "zyut": 917,
  "zui": 918,
  "zoek": 919,
  "zeon": 920,
  "zeot": 921,
  "zoei": 922,
  "nge": 923,
  "ngi": 924,
  "ngo": 925,
  "ngaa": 926,
  "ngai": 927,
  "ngan": 928,
  "ngaai": 929,
  "ngat": 930,
  "ngok": 931,
  "ngong": 932,
  "ngaan": 933,
  "ngaat": 934,
  "ngau": 935,
  "ngang": 936,
  "ngaak": 937,
  "ngaang": 938,
  "ngit": 939,
  "nguk": 940,
  "ngung": 941,
  "ngaau": 942,
  "ngak": 943,
  "ngam": 944,
  "ngou": 945,
  "ngap": 946,
  "ngoi": 947,
  "ngaap": 948,
  "ngaam": 949,
  "ngon": 950,
  "gwe": 951,
  "gwi": 952,
  "gwo": 953,
  "gwaa": 954,
  "gwai": 955,
  "gwan": 956,
  "gwaai": 957,
  "gwat": 958,
  "gwok": 959,
  "gwong": 960,
  "gwaan": 961,
  "gwaat": 962,
  "gwang": 963,
  "gwaak": 964,
  "gwaang": 965,
  "gwik": 966,
  "gwit": 967,
  "gwing": 968,
  "gwun": 969,
  "kwaa": 970,
  "kwai": 971,
  "kwan": 972,
  "kwaai": 973,
  "kwok": 974,
  "kwong": 975,
  "kwaan": 976,
  "kwaat": 977,
  "kwaak": 978,
  "kwaang": 979,
  "kwik": 980,
  "kwun": 981,
  "kwui": 982,
  "wen": 983,
  "wet": 984,
  "deu": 985,
  "got": 986,
  "hot": 987,
  "lem": 988,
  "loet": 989,
  "pet": 990,
  "soet": 991
},
"merges": [
"a a",
"n g",
"o e",
"e o",
"y u",
"a i",
"a n",
"aa i",
"a t",
"g w",
"o k",
"o ng",
"aa n",
"aa t",
"a u",
"a ng",
"aa k",
"aa ng",
"i k",
"i t",
"i ng",
"u k",
"u ng",
"aa u",
"a k",
"a m",
"i u",
"i n",
"o u",
"a p",
"e ng",
"k w",
"o i",
"aa p",
"e i",
"aa m",
"i m",
"i p",
"eo i",
"yu n",
"e k",
"u n",
"oe ng",
"yu t",
"u i",
"oe k",
"u t",
"eo n",
"eo t",
"oe i",
"o n",
"w e",
"d e",
"e p",
"g o",
"h o",
"l e",
"l oe",
"p e",
"s oe",
"b e",
"b o",
"b u",
"b aa",
"b ai",
"b an",
"b aai",
"b at",
"b ok",
"b ong",
"b aan",
"b aat",
"b au",
"b ang",
"b aak",
"b aang",
"b ik",
"b it",
"b ing",
"b uk",
"b ung",
"b aau",
"b ak",
"b am",
"b iu",
"b in",
"b ou",
"b eng",
"b ei",
"b ek",
"b un",
"b ui",
"b ut",
"c e",
"c i",
"c o",
"c aa",
"c yu",
"c ai",
"c an",
"c aai",
"c at",
"c ok",
"c ong",
"c aan",
"c aat",
"c au",
"c ang",
"c aak",
"c aang",
"c ik",
"c it",
"c ing",
"c uk",
"c ung",
"c aau",
"c ak",
"c am",
"c iu",
"c in",
"c ou",
"c ap",
"c eng",
"c oi",
"c aap",
"c aam",
"c im",
"c ip",
"c eoi",
"c yun",
"c ek",
"c un",
"c oeng",
"c yut",
"c oek",
"c eon",
"c eot",
"c oei",
"d i",
"d o",
"d aa",
"d oe",
"d ai",
"d an",
"d aai",
"d at",
"d ok",
"d ong",
"d aan",
"d aat",
"d au",
"d ang",
"d aak",
"d aang",
"d ik",
"d it",
"d ing",
"d uk",
"d ung",
"d aau",
"d ak",
"d am",
"d iu",
"d in",
"d ou",
"d ap",
"d eng",
"d oi",
"d aap",
"d ei",
"d aam",
"d im",
"d ip",
"d eoi",
"d yun",
"d ek",
"d oeng",
"d yut",
"d oek",
"d eon",
"d eot",
"f e",
"f o",
"f u",
"f aa",
"f ai",
"f an",
"f aai",
"f at",
"f ok",
"f ong",
"f aan",
"f aat",
"f au",
"f ang",
"f aak",
"f ik",
"f it",
"f ing",
"f uk",
"f ung",
"f aau",
"f iu",
"f ei",
"f un",
"f ui",
"f ut",
"g e",
"g i",
"g u",
"g aa",
"g oe",
"g ai",
"g an",
"g aai",
"g at",
"g ok",
"g ong",
"g aan",
"g aat",
"g au",
"g ang",
"g aak",
"g aang",
"g ik",
"g it",
"g ing",
"g uk",
"g ung",
"g aau",
"g ak",
"g am",
"g iu",
"g in",
"g ou",
"g ap",
"g eng",
"g oi",
"g aap",
"g ei",
"g aam",
"g im",
"g ip",
"g eoi",
"g yun",
"g un",
"g oeng",
"g yut",
"g ui",
"g oek",
"g ut",
"g oei",
"g on",
"g ep",
"h e",
"h i",
"h m",
"h aa",
"h ng",
"h oe",
"h ai",
"h an",
"h aai",
"h at",
"h ok",
"h ong",
"h aan",
"h aat",
"h au",
"h ang",
"h aak",
"h aang",
"h it",
"h ing",
"h uk",
"h ung",
"h aau",
"h ak",
"h am",
"h iu",
"h in",
"h ou",
"h ap",
"h eng",
"h oi",
"h aap",
"h ei",
"h aam",
"h im",
"h ip",
"h eoi",
"h yun",
"h ek",
"h oeng",
"h yut",
"h on",
"j e",
"j i",
"j o",
"j aa",
"j yu",
"j ai",
"j an",
"j aai",
"j at",
"j au",
"j aak",
"j aang",
"j ik",
"j it",
"j ing",
"j uk",
"j ung",
"j aau",
"j am",
"j iu",
"j in",
"j ap",
"j eng",
"j aap",
"j im",
"j ip",
"j eoi",
"j yun",
"j oeng",
"j yut",
"j oek",
"j eon",
"k e",
"k i",
"k o",
"k u",
"k aa",
"k oe",
"k ai",
"k an",
"k aai",
"k at",
"k ok",
"k ong",
"k aan",
"k aat",
"k au",
"k ang",
"k aak",
"k ik",
"k it",
"k ing",
"k uk",
"k ung",
"k aau",
"k ak",
"k am",
"k iu",
"k in",
"k ap",
"k oi",
"k aap",
"k ei",
"k aam",
"k im",
"k ip",
"k eoi",
"k yun",
"k ek",
"k oeng",
"k yut",
"k ui",
"k oek",
"k ut",
"k ep",
"l i",
"l o",
"l aa",
"l ai",
"l an",
"l aai",
"l at",
"l ok",
"l ong",
"l aan",
"l aat",
"l au",
"l ang",
"l aak",
"l aang",
"l ik",
"l it",
"l ing",
"l uk",
"l ung",
"l aau",
"l ak",
"l am",
"l iu",
"l in",
"l ou",
"l ap",
"l eng",
"l oi",
"l aap",
"l ei",
"l aam",
"l im",
"l ip",
"l eoi",
"l yun",
"l ek",
"l un",
"l oeng",
"l yut",
"l oek",
"l eon",
"l eot",
"l oei",
"m e",
"m i",
"m o",
"m aa",
"m ai",
"m an",
"m aai",
"m at",
"m ok",
"m ong",
"m aan",
"m aat",
"m au",
"m ang",
"m aak",
"m aang",
"m ik",
"m it",
"m ing",
"m uk",
"m ung",
"m aau",
"m ak",
"m am",
"m iu",
"m in",
"m ou",
"m eng",
"m oi",
"m ei",
"m un",
"m ui",
"m ut",
"n e",
"n i",
"n o",
"n aa",
"n ai",
"n an",
"n aai",
"n at",
"n ok",
"n ong",
"n aan",
"n aat",
"n au",
"n ang",
"n aang",
"n ik",
"n it",
"n ing",
"n uk",
"n ung",
"n aau",
"n ak",
"n am",
"n iu",
"n in",
"n ou",
"n ap",
"n eng",
"n oi",
"n aap",
"n ei",
"n aam",
"n im",
"n ip",
"n eoi",
"n yun",
"n oeng",
"n eot",
"n oei",
"o m",
"p o",
"p aa",
"p ai",
"p an",
"p aai",
"p at",
"p ok",
"p ong",
"p aan",
"p aat",
"p au",
"p ang",
"p aak",
"p aang",
"p ik",
"p it",
"p ing",
"p uk",
"p ung",
"p aau",
"p ak",
"p iu",
"p in",
"p ou",
"p eng",
"p ei",
"p ek",
"p un",
"p ui",
"p ut",
"s e",
"s i",
"s o",
"s aa",
"s yu",
"s ai",
"s an",
"s aai",
"s at",
"s ok",
"s ong",
"s aan",
"s aat",
"s au",
"s ang",
"s aak",
"s aang",
"s ik",
"s it",
"s ing",
"s uk",
"s ung",
"s aau",
"s ak",
"s am",
"s iu",
"s in",
"s ou",
"s ap",
"s eng",
"s oi",
"s aap",
"s ei",
"s aam",
"s im",
"s ip",
"s eoi",
"s yun",
"s ek",
"s oeng",
"s yut",
"s oek",
"s eon",
"s eot",
"t i",
"t o",
"t aa",
"t oe",
"t ai",
"t an",
"t aai",
"t at",
"t ok",
"t ong",
"t aan",
"t aat",
"t au",
"t ang",
"t aang",
"t ik",
"t it",
"t ing",
"t uk",
"t ung",
"t aau",
"t am",
"t iu",
"t in",
"t ou",
"t ap",
"t eng",
"t oi",
"t aap",
"t aam",
"t im",
"t ip",
"t eoi",
"t yun",
"t ek",
"t yut",
"t eon",
"w i",
"w o",
"w u",
"w aa",
"w ai",
"w an",
"w aai",
"w at",
"w ok",
"w ong",
"w aan",
"w aat",
"w au",
"w ang",
"w aak",
"w aang",
"w ik",
"w ing",
"w ak",
"w un",
"w ui",
"w ut",
"z e",
"z i",
"z o",
"z aa",
"z oe",
"z yu",
"z ai",
"z an",
"z aai",
"z at",
"z ok",
"z ong",
"z aan",
"z aat",
"z au",
"z ang",
"z aak",
"z aang",
"z ik",
"z it",
"z ing",
"z uk",
"z ung",
"z aau",
"z ak",
"z am",
"z iu",
"z in",
"z ou",
"z ap",
"z eng",
"z oi",
"z aap",
"z aam",
"z im",
"z ip",
"z eoi",
"z yun",
"z ek",
"z oeng",
"z yut",
"z ui",
"z oek",
"z eon",
"z eot",
"z oei",
"ng e",
"ng i",
"ng o",
"ng aa",
"ng ai",
"ng an",
"ng aai",
"ng at",
"ng ok",
"ng ong",
"ng aan",
"ng aat",
"ng au",
"ng ang",
"ng aak",
"ng aang",
"ng it",
"ng uk",
"ng ung",
"ng aau",
"ng ak",
"ng am",
"ng ou",
"ng ap",
"ng oi",
"ng aap",
"ng aam",
"ng on",
"gw e",
"gw i",
"gw o",
"gw aa",
"gw ai",
"gw an",
"gw aai",
"gw at",
"gw ok",
"gw ong",
"gw aan",
"gw aat",
"gw ang",
"gw aak",
"gw aang",
"gw ik",
"gw it",
"gw ing",
"gw un",
"kw aa",
"kw ai",
"kw an",
"kw aai",
"kw ok",
"kw ong",
"kw aan",
"kw aat",
"kw aak",
"kw aang",
"kw ik",
"kw un",
"kw ui",
"we n",
"we t",
"de u",
"go t",
"ho t",
"le m",
"loe t",
"pe t",
"soe t"
]
}
}
