{
    "version": "1.0",
    "truncation": null,
    "padding": null,
    "added_tokens": [
        {
            "id": 0,
            "special": true,
            "content": "[STOP]",
            "single_word": false,
            "lstrip": false,
            "rstrip": false,
            "normalized": false
        },
        {
            "id": 1,
            "special": true,
            "content": "[UNK]",
            "single_word": false,
            "lstrip": false,
            "rstrip": false,
            "normalized": false
        },
        {
            "id": 2,
            "special": true,
            "content": "[SPACE]",
            "single_word": false,
            "lstrip": false,
            "rstrip": false,
            "normalized": false
        },
        {
            "id": 40,
            "special": true,
            "content": "[zh-yue]",
            "single_word": false,
            "lstrip": false,
            "rstrip": false,
            "normalized": false
        }
    ],
    "normalizer": null,
    "pre_tokenizer": {
        "type": "Whitespace"
    },
    "post_processor": null,
    "decoder": null,
    "model": {
        "type": "BPE",
        "dropout": null,
        "unk_token": "[UNK]",
        "continuing_subword_prefix": null,
        "end_of_word_suffix": null,
        "fuse_unk": false,
        "vocab": {
            "[STOP]": 0,
            "[UNK]": 1,
            "[SPACE]": 2,
            "!": 3,
            "'": 4,
            "(": 5,
            ")": 6,
            ",": 7,
            "-": 8,
            ".": 9,
            "/": 10,
            ":": 11,
            ";": 12,
            "?": 13,
            "！": 14,
            "？": 15,
            "｡": 16,
            "。": 17,
            "，": 18,
            "、": 19,
            "；": 20,
            "：": 21,
            "「": 22,
            "」": 23,
            "『": 24,
            "』": 25,
            "（": 26,
            "）": 27,
            "〔": 28,
            "〕": 29,
            "【": 30,
            "】": 31,
            "—": 32,
            "…": 33,
            "–": 34,
            "～": 35,
            "《": 36,
            "》": 37,
            "〈": 38,
            "〉": 39,
            "[zh-yue]": 40,
"aa1": 41,
"aa2": 42,
"aa3": 43,
"aa4": 44,
"aa5": 45,
"aa6": 46,
"aai1": 47,
"aai2": 48,
"aai3": 49,
"aai4": 50,
"aai5": 51,
"aai6": 52,
"aak1": 53,
"aak2": 54,
"aak3": 55,
"aak4": 56,
"aak5": 57,
"aak6": 58,
"aam1": 59,
"aam2": 60,
"aam3": 61,
"aam4": 62,
"aam5": 63,
"aam6": 64,
"aan1": 65,
"aan2": 66,
"aan3": 67,
"aan4": 68,
"aan5": 69,
"aan6": 70,
"aang1": 71,
"aang2": 72,
"aang3": 73,
"aang4": 74,
"aang5": 75,
"aang6": 76,
"aap1": 77,
"aap2": 78,
"aap3": 79,
"aap4": 80,
"aap5": 81,
"aap6": 82,
"aat1": 83,
"aat2": 84,
"aat3": 85,
"aat4": 86,
"aat5": 87,
"aat6": 88,
"aau1": 89,
"aau2": 90,
"aau3": 91,
"aau4": 92,
"aau5": 93,
"aau6": 94,
"ai1": 95,
"ai2": 96,
"ai3": 97,
"ai4": 98,
"ai5": 99,
"ai6": 100,
"ak1": 101,
"ak2": 102,
"ak3": 103,
"ak4": 104,
"ak5": 105,
"ak6": 106,
"am1": 107,
"am2": 108,
"am3": 109,
"am4": 110,
"am5": 111,
"am6": 112,
"an1": 113,
"an2": 114,
"an3": 115,
"an4": 116,
"an5": 117,
"an6": 118,
"ang1": 119,
"ang2": 120,
"ang3": 121,
"ang4": 122,
"ang5": 123,
"ang6": 124,
"ap1": 125,
"ap2": 126,
"ap3": 127,
"ap4": 128,
"ap5": 129,
"ap6": 130,
"at1": 131,
"at2": 132,
"at3": 133,
"at4": 134,
"at5": 135,
"at6": 136,
"au1": 137,
"au2": 138,
"au3": 139,
"au4": 140,
"au5": 141,
"au6": 142,
"baa1": 143,
"baa2": 144,
"baa3": 145,
"baa4": 146,
"baa5": 147,
"baa6": 148,
"baai1": 149,
"baai2": 150,
"baai3": 151,
"baai4": 152,
"baai5": 153,
"baai6": 154,
"baak1": 155,
"baak2": 156,
"baak3": 157,
"baak4": 158,
"baak5": 159,
"baak6": 160,
"baan1": 161,
"baan2": 162,
"baan3": 163,
"baan4": 164,
"baan5": 165,
"baan6": 166,
"baang1": 167,
"baang2": 168,
"baang3": 169,
"baang4": 170,
"baang5": 171,
"baang6": 172,
"baat1": 173,
"baat2": 174,
"baat3": 175,
"baat4": 176,
"baat5": 177,
"baat6": 178,
"baau1": 179,
"baau2": 180,
"baau3": 181,
"baau4": 182,
"baau5": 183,
"baau6": 184,
"bai1": 185,
"bai2": 186,
"bai3": 187,
"bai4": 188,
"bai5": 189,
"bai6": 190,
"bak1": 191,
"bak2": 192,
"bak3": 193,
"bak4": 194,
"bak5": 195,
"bak6": 196,
"bam1": 197,
"bam2": 198,
"bam3": 199,
"bam4": 200,
"bam5": 201,
"bam6": 202,
"ban1": 203,
"ban2": 204,
"ban3": 205,
"ban4": 206,
"ban5": 207,
"ban6": 208,
"bang1": 209,
"bang2": 210,
"bang3": 211,
"bang4": 212,
"bang5": 213,
"bang6": 214,
"bat1": 215,
"bat2": 216,
"bat3": 217,
"bat4": 218,
"bat5": 219,
"bat6": 220,
"bau1": 221,
"bau2": 222,
"bau3": 223,
"bau4": 224,
"bau5": 225,
"bau6": 226,
"be1": 227,
"be2": 228,
"be3": 229,
"be4": 230,
"be5": 231,
"be6": 232,
"bei1": 233,
"bei2": 234,
"bei3": 235,
"bei4": 236,
"bei5": 237,
"bei6": 238,
"bek1": 239,
"bek2": 240,
"bek3": 241,
"bek4": 242,
"bek5": 243,
"bek6": 244,
"beng1": 245,
"beng2": 246,
"beng3": 247,
"beng4": 248,
"beng5": 249,
"beng6": 250,
"bik1": 251,
"bik2": 252,
"bik3": 253,
"bik4": 254,
"bik5": 255,
"bik6": 256,
"bin1": 257,
"bin2": 258,
"bin3": 259,
"bin4": 260,
"bin5": 261,
"bin6": 262,
"bing1": 263,
"bing2": 264,
"bing3": 265,
"bing4": 266,
"bing5": 267,
"bing6": 268,
"bit1": 269,
"bit2": 270,
"bit3": 271,
"bit4": 272,
"bit5": 273,
"bit6": 274,
"biu1": 275,
"biu2": 276,
"biu3": 277,
"biu4": 278,
"biu5": 279,
"biu6": 280,
"bo1": 281,
"bo2": 282,
"bo3": 283,
"bo4": 284,
"bo5": 285,
"bo6": 286,
"bok1": 287,
"bok2": 288,
"bok3": 289,
"bok4": 290,
"bok5": 291,
"bok6": 292,
"bong1": 293,
"bong2": 294,
"bong3": 295,
"bong4": 296,
"bong5": 297,
"bong6": 298,
"bou1": 299,
"bou2": 300,
"bou3": 301,
"bou4": 302,
"bou5": 303,
"bou6": 304,
"bu1": 305,
"bu2": 306,
"bu3": 307,
"bu4": 308,
"bu5": 309,
"bu6": 310,
"bui1": 311,
"bui2": 312,
"bui3": 313,
"bui4": 314,
"bui5": 315,
"bui6": 316,
"buk1": 317,
"buk2": 318,
"buk3": 319,
"buk4": 320,
"buk5": 321,
"buk6": 322,
"bun1": 323,
"bun2": 324,
"bun3": 325,
"bun4": 326,
"bun5": 327,
"bun6": 328,
"bung1": 329,
"bung2": 330,
"bung3": 331,
"bung4": 332,
"bung5": 333,
"bung6": 334,
"but1": 335,
"but2": 336,
"but3": 337,
"but4": 338,
"but5": 339,
"but6": 340,
"caa1": 341,
"caa2": 342,
"caa3": 343,
"caa4": 344,
"caa5": 345,
"caa6": 346,
"caai1": 347,
"caai2": 348,
"caai3": 349,
"caai4": 350,
"caai5": 351,
"caai6": 352,
"caak1": 353,
"caak2": 354,
"caak3": 355,
"caak4": 356,
"caak5": 357,
"caak6": 358,
"caam1": 359,
"caam2": 360,
"caam3": 361,
"caam4": 362,
"caam5": 363,
"caam6": 364,
"caan1": 365,
"caan2": 366,
"caan3": 367,
"caan4": 368,
"caan5": 369,
"caan6": 370,
"caang1": 371,
"caang2": 372,
"caang3": 373,
"caang4": 374,
"caang5": 375,
"caang6": 376,
"caap1": 377,
"caap2": 378,
"caap3": 379,
"caap4": 380,
"caap5": 381,
"caap6": 382,
"caat1": 383,
"caat2": 384,
"caat3": 385,
"caat4": 386,
"caat5": 387,
"caat6": 388,
"caau1": 389,
"caau2": 390,
"caau3": 391,
"caau4": 392,
"caau5": 393,
"caau6": 394,
"cai1": 395,
"cai2": 396,
"cai3": 397,
"cai4": 398,
"cai5": 399,
"cai6": 400,
"cak1": 401,
"cak2": 402,
"cak3": 403,
"cak4": 404,
"cak5": 405,
"cak6": 406,
"cam1": 407,
"cam2": 408,
"cam3": 409,
"cam4": 410,
"cam5": 411,
"cam6": 412,
"can1": 413,
"can2": 414,
"can3": 415,
"can4": 416,
"can5": 417,
"can6": 418,
"cang1": 419,
"cang2": 420,
"cang3": 421,
"cang4": 422,
"cang5": 423,
"cang6": 424,
"cap1": 425,
"cap2": 426,
"cap3": 427,
"cap4": 428,
"cap5": 429,
"cap6": 430,
"cat1": 431,
"cat2": 432,
"cat3": 433,
"cat4": 434,
"cat5": 435,
"cat6": 436,
"cau1": 437,
"cau2": 438,
"cau3": 439,
"cau4": 440,
"cau5": 441,
"cau6": 442,
"ce1": 443,
"ce2": 444,
"ce3": 445,
"ce4": 446,
"ce5": 447,
"ce6": 448,
"cek1": 449,
"cek2": 450,
"cek3": 451,
"cek4": 452,
"cek5": 453,
"cek6": 454,
"ceng1": 455,
"ceng2": 456,
"ceng3": 457,
"ceng4": 458,
"ceng5": 459,
"ceng6": 460,
"ceoi1": 461,
"ceoi2": 462,
"ceoi3": 463,
"ceoi4": 464,
"ceoi5": 465,
"ceoi6": 466,
"ceon1": 467,
"ceon2": 468,
"ceon3": 469,
"ceon4": 470,
"ceon5": 471,
"ceon6": 472,
"ceot1": 473,
"ceot2": 474,
"ceot3": 475,
"ceot4": 476,
"ceot5": 477,
"ceot6": 478,
"ci1": 479,
"ci2": 480,
"ci3": 481,
"ci4": 482,
"ci5": 483,
"ci6": 484,
"cik1": 485,
"cik2": 486,
"cik3": 487,
"cik4": 488,
"cik5": 489,
"cik6": 490,
"cim1": 491,
"cim2": 492,
"cim3": 493,
"cim4": 494,
"cim5": 495,
"cim6": 496,
"cin1": 497,
"cin2": 498,
"cin3": 499,
"cin4": 500,
"cin5": 501,
"cin6": 502,
"cing1": 503,
"cing2": 504,
"cing3": 505,
"cing4": 506,
"cing5": 507,
"cing6": 508,
"cip1": 509,
"cip2": 510,
"cip3": 511,
"cip4": 512,
"cip5": 513,
"cip6": 514,
"cit1": 515,
"cit2": 516,
"cit3": 517,
"cit4": 518,
"cit5": 519,
"cit6": 520,
"ciu1": 521,
"ciu2": 522,
"ciu3": 523,
"ciu4": 524,
"ciu5": 525,
"ciu6": 526,
"co1": 527,
"co2": 528,
"co3": 529,
"co4": 530,
"co5": 531,
"co6": 532,
"coei1": 533,
"coei2": 534,
"coei3": 535,
"coei4": 536,
"coei5": 537,
"coei6": 538,
"coek1": 539,
"coek2": 540,
"coek3": 541,
"coek4": 542,
"coek5": 543,
"coek6": 544,
"coeng1": 545,
"coeng2": 546,
"coeng3": 547,
"coeng4": 548,
"coeng5": 549,
"coeng6": 550,
"coi1": 551,
"coi2": 552,
"coi3": 553,
"coi4": 554,
"coi5": 555,
"coi6": 556,
"cok1": 557,
"cok2": 558,
"cok3": 559,
"cok4": 560,
"cok5": 561,
"cok6": 562,
"cong1": 563,
"cong2": 564,
"cong3": 565,
"cong4": 566,
"cong5": 567,
"cong6": 568,
"cou1": 569,
"cou2": 570,
"cou3": 571,
"cou4": 572,
"cou5": 573,
"cou6": 574,
"cuk1": 575,
"cuk2": 576,
"cuk3": 577,
"cuk4": 578,
"cuk5": 579,
"cuk6": 580,
"cun1": 581,
"cun2": 582,
"cun3": 583,
"cun4": 584,
"cun5": 585,
"cun6": 586,
"cung1": 587,
"cung2": 588,
"cung3": 589,
"cung4": 590,
"cung5": 591,
"cung6": 592,
"cyu1": 593,
"cyu2": 594,
"cyu3": 595,
"cyu4": 596,
"cyu5": 597,
"cyu6": 598,
"cyun1": 599,
"cyun2": 600,
"cyun3": 601,
"cyun4": 602,
"cyun5": 603,
"cyun6": 604,
"cyut1": 605,
"cyut2": 606,
"cyut3": 607,
"cyut4": 608,
"cyut5": 609,
"cyut6": 610,
"daa1": 611,
"daa2": 612,
"daa3": 613,
"daa4": 614,
"daa5": 615,
"daa6": 616,
"daai1": 617,
"daai2": 618,
"daai3": 619,
"daai4": 620,
"daai5": 621,
"daai6": 622,
"daak1": 623,
"daak2": 624,
"daak3": 625,
"daak4": 626,
"daak5": 627,
"daak6": 628,
"daam1": 629,
"daam2": 630,
"daam3": 631,
"daam4": 632,
"daam5": 633,
"daam6": 634,
"daan1": 635,
"daan2": 636,
"daan3": 637,
"daan4": 638,
"daan5": 639,
"daan6": 640,
"daang1": 641,
"daang2": 642,
"daang3": 643,
"daang4": 644,
"daang5": 645,
"daang6": 646,
"daap1": 647,
"daap2": 648,
"daap3": 649,
"daap4": 650,
"daap5": 651,
"daap6": 652,
"daat1": 653,
"daat2": 654,
"daat3": 655,
"daat4": 656,
"daat5": 657,
"daat6": 658,
"daau1": 659,
"daau2": 660,
"daau3": 661,
"daau4": 662,
"daau5": 663,
"daau6": 664,
"dai1": 665,
"dai2": 666,
"dai3": 667,
"dai4": 668,
"dai5": 669,
"dai6": 670,
"dak1": 671,
"dak2": 672,
"dak3": 673,
"dak4": 674,
"dak5": 675,
"dak6": 676,
"dam1": 677,
"dam2": 678,
"dam3": 679,
"dam4": 680,
"dam5": 681,
"dam6": 682,
"dan1": 683,
"dan2": 684,
"dan3": 685,
"dan4": 686,
"dan5": 687,
"dan6": 688,
"dang1": 689,
"dang2": 690,
"dang3": 691,
"dang4": 692,
"dang5": 693,
"dang6": 694,
"dap1": 695,
"dap2": 696,
"dap3": 697,
"dap4": 698,
"dap5": 699,
"dap6": 700,
"dat1": 701,
"dat2": 702,
"dat3": 703,
"dat4": 704,
"dat5": 705,
"dat6": 706,
"dau1": 707,
"dau2": 708,
"dau3": 709,
"dau4": 710,
"dau5": 711,
"dau6": 712,
"de1": 713,
"de2": 714,
"de3": 715,
"de4": 716,
"de5": 717,
"de6": 718,
"dei1": 719,
"dei2": 720,
"dei3": 721,
"dei4": 722,
"dei5": 723,
"dei6": 724,
"dek1": 725,
"dek2": 726,
"dek3": 727,
"dek4": 728,
"dek5": 729,
"dek6": 730,
"deng1": 731,
"deng2": 732,
"deng3": 733,
"deng4": 734,
"deng5": 735,
"deng6": 736,
"deoi1": 737,
"deoi2": 738,
"deoi3": 739,
"deoi4": 740,
"deoi5": 741,
"deoi6": 742,
"deon1": 743,
"deon2": 744,
"deon3": 745,
"deon4": 746,
"deon5": 747,
"deon6": 748,
"deot1": 749,
"deot2": 750,
"deot3": 751,
"deot4": 752,
"deot5": 753,
"deot6": 754,
"deu1": 755,
"deu2": 756,
"deu3": 757,
"deu4": 758,
"deu5": 759,
"deu6": 760,
"di1": 761,
"di2": 762,
"di3": 763,
"di4": 764,
"di5": 765,
"di6": 766,
"dik1": 767,
"dik2": 768,
"dik3": 769,
"dik4": 770,
"dik5": 771,
"dik6": 772,
"dim1": 773,
"dim2": 774,
"dim3": 775,
"dim4": 776,
"dim5": 777,
"dim6": 778,
"din1": 779,
"din2": 780,
"din3": 781,
"din4": 782,
"din5": 783,
"din6": 784,
"ding1": 785,
"ding2": 786,
"ding3": 787,
"ding4": 788,
"ding5": 789,
"ding6": 790,
"dip1": 791,
"dip2": 792,
"dip3": 793,
"dip4": 794,
"dip5": 795,
"dip6": 796,
"dit1": 797,
"dit2": 798,
"dit3": 799,
"dit4": 800,
"dit5": 801,
"dit6": 802,
"diu1": 803,
"diu2": 804,
"diu3": 805,
"diu4": 806,
"diu5": 807,
"diu6": 808,
"do1": 809,
"do2": 810,
"do3": 811,
"do4": 812,
"do5": 813,
"do6": 814,
"doe1": 815,
"doe2": 816,
"doe3": 817,
"doe4": 818,
"doe5": 819,
"doe6": 820,
"doek1": 821,
"doek2": 822,
"doek3": 823,
"doek4": 824,
"doek5": 825,
"doek6": 826,
"doeng1": 827,
"doeng2": 828,
"doeng3": 829,
"doeng4": 830,
"doeng5": 831,
"doeng6": 832,
"doi1": 833,
"doi2": 834,
"doi3": 835,
"doi4": 836,
"doi5": 837,
"doi6": 838,
"dok1": 839,
"dok2": 840,
"dok3": 841,
"dok4": 842,
"dok5": 843,
"dok6": 844,
"dong1": 845,
"dong2": 846,
"dong3": 847,
"dong4": 848,
"dong5": 849,
"dong6": 850,
"dou1": 851,
"dou2": 852,
"dou3": 853,
"dou4": 854,
"dou5": 855,
"dou6": 856,
"duk1": 857,
"duk2": 858,
"duk3": 859,
"duk4": 860,
"duk5": 861,
"duk6": 862,
"dung1": 863,
"dung2": 864,
"dung3": 865,
"dung4": 866,
"dung5": 867,
"dung6": 868,
"dyun1": 869,
"dyun2": 870,
"dyun3": 871,
"dyun4": 872,
"dyun5": 873,
"dyun6": 874,
"dyut1": 875,
"dyut2": 876,
"dyut3": 877,
"dyut4": 878,
"dyut5": 879,
"dyut6": 880,
"e1": 881,
"e2": 882,
"e3": 883,
"e4": 884,
"e5": 885,
"e6": 886,
"ei1": 887,
"ei2": 888,
"ei3": 889,
"ei4": 890,
"ei5": 891,
"ei6": 892,
"eot1": 893,
"eot2": 894,
"eot3": 895,
"eot4": 896,
"eot5": 897,
"eot6": 898,
"faa1": 899,
"faa2": 900,
"faa3": 901,
"faa4": 902,
"faa5": 903,
"faa6": 904,
"faai1": 905,
"faai2": 906,
"faai3": 907,
"faai4": 908,
"faai5": 909,
"faai6": 910,
"faak1": 911,
"faak2": 912,
"faak3": 913,
"faak4": 914,
"faak5": 915,
"faak6": 916,
"faan1": 917,
"faan2": 918,
"faan3": 919,
"faan4": 920,
"faan5": 921,
"faan6": 922,
"faat1": 923,
"faat2": 924,
"faat3": 925,
"faat4": 926,
"faat5": 927,
"faat6": 928,
"faau1": 929,
"faau2": 930,
"faau3": 931,
"faau4": 932,
"faau5": 933,
"faau6": 934,
"fai1": 935,
"fai2": 936,
"fai3": 937,
"fai4": 938,
"fai5": 939,
"fai6": 940,
"fan1": 941,
"fan2": 942,
"fan3": 943,
"fan4": 944,
"fan5": 945,
"fan6": 946,
"fang1": 947,
"fang2": 948,
"fang3": 949,
"fang4": 950,
"fang5": 951,
"fang6": 952,
"fat1": 953,
"fat2": 954,
"fat3": 955,
"fat4": 956,
"fat5": 957,
"fat6": 958,
"fau1": 959,
"fau2": 960,
"fau3": 961,
"fau4": 962,
"fau5": 963,
"fau6": 964,
"fe1": 965,
"fe2": 966,
"fe3": 967,
"fe4": 968,
"fe5": 969,
"fe6": 970,
"fei1": 971,
"fei2": 972,
"fei3": 973,
"fei4": 974,
"fei5": 975,
"fei6": 976,
"fik1": 977,
"fik2": 978,
"fik3": 979,
"fik4": 980,
"fik5": 981,
"fik6": 982,
"fing1": 983,
"fing2": 984,
"fing3": 985,
"fing4": 986,
"fing5": 987,
"fing6": 988,
"fit1": 989,
"fit2": 990,
"fit3": 991,
"fit4": 992,
"fit5": 993,
"fit6": 994,
"fiu1": 995,
"fiu2": 996,
"fiu3": 997,
"fiu4": 998,
"fiu5": 999,
"fiu6": 1000,
"fo1": 1001,
"fo2": 1002,
"fo3": 1003,
"fo4": 1004,
"fo5": 1005,
"fo6": 1006,
"fok1": 1007,
"fok2": 1008,
"fok3": 1009,
"fok4": 1010,
"fok5": 1011,
"fok6": 1012,
"fong1": 1013,
"fong2": 1014,
"fong3": 1015,
"fong4": 1016,
"fong5": 1017,
"fong6": 1018,
"fu1": 1019,
"fu2": 1020,
"fu3": 1021,
"fu4": 1022,
"fu5": 1023,
"fu6": 1024,
"fui1": 1025,
"fui2": 1026,
"fui3": 1027,
"fui4": 1028,
"fui5": 1029,
"fui6": 1030,
"fuk1": 1031,
"fuk2": 1032,
"fuk3": 1033,
"fuk4": 1034,
"fuk5": 1035,
"fuk6": 1036,
"fun1": 1037,
"fun2": 1038,
"fun3": 1039,
"fun4": 1040,
"fun5": 1041,
"fun6": 1042,
"fung1": 1043,
"fung2": 1044,
"fung3": 1045,
"fung4": 1046,
"fung5": 1047,
"fung6": 1048,
"fut1": 1049,
"fut2": 1050,
"fut3": 1051,
"fut4": 1052,
"fut5": 1053,
"fut6": 1054,
"gaa1": 1055,
"gaa2": 1056,
"gaa3": 1057,
"gaa4": 1058,
"gaa5": 1059,
"gaa6": 1060,
"gaai1": 1061,
"gaai2": 1062,
"gaai3": 1063,
"gaai4": 1064,
"gaai5": 1065,
"gaai6": 1066,
"gaak1": 1067,
"gaak2": 1068,
"gaak3": 1069,
"gaak4": 1070,
"gaak5": 1071,
"gaak6": 1072,
"gaam1": 1073,
"gaam2": 1074,
"gaam3": 1075,
"gaam4": 1076,
"gaam5": 1077,
"gaam6": 1078,
"gaan1": 1079,
"gaan2": 1080,
"gaan3": 1081,
"gaan4": 1082,
"gaan5": 1083,
"gaan6": 1084,
"gaang1": 1085,
"gaang2": 1086,
"gaang3": 1087,
"gaang4": 1088,
"gaang5": 1089,
"gaang6": 1090,
"gaap1": 1091,
"gaap2": 1092,
"gaap3": 1093,
"gaap4": 1094,
"gaap5": 1095,
"gaap6": 1096,
"gaat1": 1097,
"gaat2": 1098,
"gaat3": 1099,
"gaat4": 1100,
"gaat5": 1101,
"gaat6": 1102,
"gaau1": 1103,
"gaau2": 1104,
"gaau3": 1105,
"gaau4": 1106,
"gaau5": 1107,
"gaau6": 1108,
"gai1": 1109,
"gai2": 1110,
"gai3": 1111,
"gai4": 1112,
"gai5": 1113,
"gai6": 1114,
"gak1": 1115,
"gak2": 1116,
"gak3": 1117,
"gak4": 1118,
"gak5": 1119,
"gak6": 1120,
"gam1": 1121,
"gam2": 1122,
"gam3": 1123,
"gam4": 1124,
"gam5": 1125,
"gam6": 1126,
"gan1": 1127,
"gan2": 1128,
"gan3": 1129,
"gan4": 1130,
"gan5": 1131,
"gan6": 1132,
"gang1": 1133,
"gang2": 1134,
"gang3": 1135,
"gang4": 1136,
"gang5": 1137,
"gang6": 1138,
"gap1": 1139,
"gap2": 1140,
"gap3": 1141,
"gap4": 1142,
"gap5": 1143,
"gap6": 1144,
"gat1": 1145,
"gat2": 1146,
"gat3": 1147,
"gat4": 1148,
"gat5": 1149,
"gat6": 1150,
"gau1": 1151,
"gau2": 1152,
"gau3": 1153,
"gau4": 1154,
"gau5": 1155,
"gau6": 1156,
"ge1": 1157,
"ge2": 1158,
"ge3": 1159,
"ge4": 1160,
"ge5": 1161,
"ge6": 1162,
"gei1": 1163,
"gei2": 1164,
"gei3": 1165,
"gei4": 1166,
"gei5": 1167,
"gei6": 1168,
"geng1": 1169,
"geng2": 1170,
"geng3": 1171,
"geng4": 1172,
"geng5": 1173,
"geng6": 1174,
"geoi1": 1175,
"geoi2": 1176,
"geoi3": 1177,
"geoi4": 1178,
"geoi5": 1179,
"geoi6": 1180,
"gep1": 1181,
"gep2": 1182,
"gep3": 1183,
"gep4": 1184,
"gep5": 1185,
"gep6": 1186,
"gi1": 1187,
"gi2": 1188,
"gi3": 1189,
"gi4": 1190,
"gi5": 1191,
"gi6": 1192,
"gik1": 1193,
"gik2": 1194,
"gik3": 1195,
"gik4": 1196,
"gik5": 1197,
"gik6": 1198,
"gim1": 1199,
"gim2": 1200,
"gim3": 1201,
"gim4": 1202,
"gim5": 1203,
"gim6": 1204,
"gin1": 1205,
"gin2": 1206,
"gin3": 1207,
"gin4": 1208,
"gin5": 1209,
"gin6": 1210,
"ging1": 1211,
"ging2": 1212,
"ging3": 1213,
"ging4": 1214,
"ging5": 1215,
"ging6": 1216,
"gip1": 1217,
"gip2": 1218,
"gip3": 1219,
"gip4": 1220,
"gip5": 1221,
"gip6": 1222,
"git1": 1223,
"git2": 1224,
"git3": 1225,
"git4": 1226,
"git5": 1227,
"git6": 1228,
"giu1": 1229,
"giu2": 1230,
"giu3": 1231,
"giu4": 1232,
"giu5": 1233,
"giu6": 1234,
"go1": 1235,
"go2": 1236,
"go3": 1237,
"go4": 1238,
"go5": 1239,
"go6": 1240,
"goe1": 1241,
"goe2": 1242,
"goe3": 1243,
"goe4": 1244,
"goe5": 1245,
"goe6": 1246,
"goei1": 1247,
"goei2": 1248,
"goei3": 1249,
"goei4": 1250,
"goei5": 1251,
"goei6": 1252,
"goek1": 1253,
"goek2": 1254,
"goek3": 1255,
"goek4": 1256,
"goek5": 1257,
"goek6": 1258,
"goeng1": 1259,
"goeng2": 1260,
"goeng3": 1261,
"goeng4": 1262,
"goeng5": 1263,
"goeng6": 1264,
"goi1": 1265,
"goi2": 1266,
"goi3": 1267,
"goi4": 1268,
"goi5": 1269,
"goi6": 1270,
"gok1": 1271,
"gok2": 1272,
"gok3": 1273,
"gok4": 1274,
"gok5": 1275,
"gok6": 1276,
"gon1": 1277,
"gon2": 1278,
"gon3": 1279,
"gon4": 1280,
"gon5": 1281,
"gon6": 1282,
"gong1": 1283,
"gong2": 1284,
"gong3": 1285,
"gong4": 1286,
"gong5": 1287,
"gong6": 1288,
"got1": 1289,
"got2": 1290,
"got3": 1291,
"got4": 1292,
"got5": 1293,
"got6": 1294,
"gou1": 1295,
"gou2": 1296,
"gou3": 1297,
"gou4": 1298,
"gou5": 1299,
"gou6": 1300,
"gu1": 1301,
"gu2": 1302,
"gu3": 1303,
"gu4": 1304,
"gu5": 1305,
"gu6": 1306,
"gui1": 1307,
"gui2": 1308,
"gui3": 1309,
"gui4": 1310,
"gui5": 1311,
"gui6": 1312,
"guk1": 1313,
"guk2": 1314,
"guk3": 1315,
"guk4": 1316,
"guk5": 1317,
"guk6": 1318,
"gun1": 1319,
"gun2": 1320,
"gun3": 1321,
"gun4": 1322,
"gun5": 1323,
"gun6": 1324,
"gung1": 1325,
"gung2": 1326,
"gung3": 1327,
"gung4": 1328,
"gung5": 1329,
"gung6": 1330,
"gut1": 1331,
"gut2": 1332,
"gut3": 1333,
"gut4": 1334,
"gut5": 1335,
"gut6": 1336,
"gwaa1": 1337,
"gwaa2": 1338,
"gwaa3": 1339,
"gwaa4": 1340,
"gwaa5": 1341,
"gwaa6": 1342,
"gwaai1": 1343,
"gwaai2": 1344,
"gwaai3": 1345,
"gwaai4": 1346,
"gwaai5": 1347,
"gwaai6": 1348,
"gwaak1": 1349,
"gwaak2": 1350,
"gwaak3": 1351,
"gwaak4": 1352,
"gwaak5": 1353,
"gwaak6": 1354,
"gwaan1": 1355,
"gwaan2": 1356,
"gwaan3": 1357,
"gwaan4": 1358,
"gwaan5": 1359,
"gwaan6": 1360,
"gwaang1": 1361,
"gwaang2": 1362,
"gwaang3": 1363,
"gwaang4": 1364,
"gwaang5": 1365,
"gwaang6": 1366,
"gwaat1": 1367,
"gwaat2": 1368,
"gwaat3": 1369,
"gwaat4": 1370,
"gwaat5": 1371,
"gwaat6": 1372,
"gwai1": 1373,
"gwai2": 1374,
"gwai3": 1375,
"gwai4": 1376,
"gwai5": 1377,
"gwai6": 1378,
"gwan1": 1379,
"gwan2": 1380,
"gwan3": 1381,
"gwan4": 1382,
"gwan5": 1383,
"gwan6": 1384,
"gwang1": 1385,
"gwang2": 1386,
"gwang3": 1387,
"gwang4": 1388,
"gwang5": 1389,
"gwang6": 1390,
"gwat1": 1391,
"gwat2": 1392,
"gwat3": 1393,
"gwat4": 1394,
"gwat5": 1395,
"gwat6": 1396,
"gwe1": 1397,
"gwe2": 1398,
"gwe3": 1399,
"gwe4": 1400,
"gwe5": 1401,
"gwe6": 1402,
"gwi1": 1403,
"gwi2": 1404,
"gwi3": 1405,
"gwi4": 1406,
"gwi5": 1407,
"gwi6": 1408,
"gwik1": 1409,
"gwik2": 1410,
"gwik3": 1411,
"gwik4": 1412,
"gwik5": 1413,
"gwik6": 1414,
"gwing1": 1415,
"gwing2": 1416,
"gwing3": 1417,
"gwing4": 1418,
"gwing5": 1419,
"gwing6": 1420,
"gwit1": 1421,
"gwit2": 1422,
"gwit3": 1423,
"gwit4": 1424,
"gwit5": 1425,
"gwit6": 1426,
"gwo1": 1427,
"gwo2": 1428,
"gwo3": 1429,
"gwo4": 1430,
"gwo5": 1431,
"gwo6": 1432,
"gwok1": 1433,
"gwok2": 1434,
"gwok3": 1435,
"gwok4": 1436,
"gwok5": 1437,
"gwok6": 1438,
"gwong1": 1439,
"gwong2": 1440,
"gwong3": 1441,
"gwong4": 1442,
"gwong5": 1443,
"gwong6": 1444,
"gwun1": 1445,
"gwun2": 1446,
"gwun3": 1447,
"gwun4": 1448,
"gwun5": 1449,
"gwun6": 1450,
"gyun1": 1451,
"gyun2": 1452,
"gyun3": 1453,
"gyun4": 1454,
"gyun5": 1455,
"gyun6": 1456,
"gyut1": 1457,
"gyut2": 1458,
"gyut3": 1459,
"gyut4": 1460,
"gyut5": 1461,
"gyut6": 1462,
"haa1": 1463,
"haa2": 1464,
"haa3": 1465,
"haa4": 1466,
"haa5": 1467,
"haa6": 1468,
"haai1": 1469,
"haai2": 1470,
"haai3": 1471,
"haai4": 1472,
"haai5": 1473,
"haai6": 1474,
"haak1": 1475,
"haak2": 1476,
"haak3": 1477,
"haak4": 1478,
"haak5": 1479,
"haak6": 1480,
"haam1": 1481,
"haam2": 1482,
"haam3": 1483,
"haam4": 1484,
"haam5": 1485,
"haam6": 1486,
"haan1": 1487,
"haan2": 1488,
"haan3": 1489,
"haan4": 1490,
"haan5": 1491,
"haan6": 1492,
"haang1": 1493,
"haang2": 1494,
"haang3": 1495,
"haang4": 1496,
"haang5": 1497,
"haang6": 1498,
"haap1": 1499,
"haap2": 1500,
"haap3": 1501,
"haap4": 1502,
"haap5": 1503,
"haap6": 1504,
"haat1": 1505,
"haat2": 1506,
"haat3": 1507,
"haat4": 1508,
"haat5": 1509,
"haat6": 1510,
"haau1": 1511,
"haau2": 1512,
"haau3": 1513,
"haau4": 1514,
"haau5": 1515,
"haau6": 1516,
"hai1": 1517,
"hai2": 1518,
"hai3": 1519,
"hai4": 1520,
"hai5": 1521,
"hai6": 1522,
"hak1": 1523,
"hak2": 1524,
"hak3": 1525,
"hak4": 1526,
"hak5": 1527,
"hak6": 1528,
"ham1": 1529,
"ham2": 1530,
"ham3": 1531,
"ham4": 1532,
"ham5": 1533,
"ham6": 1534,
"han1": 1535,
"han2": 1536,
"han3": 1537,
"han4": 1538,
"han5": 1539,
"han6": 1540,
"hang1": 1541,
"hang2": 1542,
"hang3": 1543,
"hang4": 1544,
"hang5": 1545,
"hang6": 1546,
"hap1": 1547,
"hap2": 1548,
"hap3": 1549,
"hap4": 1550,
"hap5": 1551,
"hap6": 1552,
"hat1": 1553,
"hat2": 1554,
"hat3": 1555,
"hat4": 1556,
"hat5": 1557,
"hat6": 1558,
"hau1": 1559,
"hau2": 1560,
"hau3": 1561,
"hau4": 1562,
"hau5": 1563,
"hau6": 1564,
"he1": 1565,
"he2": 1566,
"he3": 1567,
"he4": 1568,
"he5": 1569,
"he6": 1570,
"hei1": 1571,
"hei2": 1572,
"hei3": 1573,
"hei4": 1574,
"hei5": 1575,
"hei6": 1576,
"hek1": 1577,
"hek2": 1578,
"hek3": 1579,
"hek4": 1580,
"hek5": 1581,
"hek6": 1582,
"heng1": 1583,
"heng2": 1584,
"heng3": 1585,
"heng4": 1586,
"heng5": 1587,
"heng6": 1588,
"heoi1": 1589,
"heoi2": 1590,
"heoi3": 1591,
"heoi4": 1592,
"heoi5": 1593,
"heoi6": 1594,
"hi1": 1595,
"hi2": 1596,
"hi3": 1597,
"hi4": 1598,
"hi5": 1599,
"hi6": 1600,
"him1": 1601,
"him2": 1602,
"him3": 1603,
"him4": 1604,
"him5": 1605,
"him6": 1606,
"hin1": 1607,
"hin2": 1608,
"hin3": 1609,
"hin4": 1610,
"hin5": 1611,
"hin6": 1612,
"hing1": 1613,
"hing2": 1614,
"hing3": 1615,
"hing4": 1616,
"hing5": 1617,
"hing6": 1618,
"hip1": 1619,
"hip2": 1620,
"hip3": 1621,
"hip4": 1622,
"hip5": 1623,
"hip6": 1624,
"hit1": 1625,
"hit2": 1626,
"hit3": 1627,
"hit4": 1628,
"hit5": 1629,
"hit6": 1630,
"hiu1": 1631,
"hiu2": 1632,
"hiu3": 1633,
"hiu4": 1634,
"hiu5": 1635,
"hiu6": 1636,
"hm1": 1637,
"hm2": 1638,
"hm3": 1639,
"hm4": 1640,
"hm5": 1641,
"hm6": 1642,
"hng1": 1643,
"hng2": 1644,
"hng3": 1645,
"hng4": 1646,
"hng5": 1647,
"hng6": 1648,
"ho1": 1649,
"ho2": 1650,
"ho3": 1651,
"ho4": 1652,
"ho5": 1653,
"ho6": 1654,
"hoe1": 1655,
"hoe2": 1656,
"hoe3": 1657,
"hoe4": 1658,
"hoe5": 1659,
"hoe6": 1660,
"hoeng1": 1661,
"hoeng2": 1662,
"hoeng3": 1663,
"hoeng4": 1664,
"hoeng5": 1665,
"hoeng6": 1666,
"hoi1": 1667,
"hoi2": 1668,
"hoi3": 1669,
"hoi4": 1670,
"hoi5": 1671,
"hoi6": 1672,
"hok1": 1673,
"hok2": 1674,
"hok3": 1675,
"hok4": 1676,
"hok5": 1677,
"hok6": 1678,
"hon1": 1679,
"hon2": 1680,
"hon3": 1681,
"hon4": 1682,
"hon5": 1683,
"hon6": 1684,
"hong1": 1685,
"hong2": 1686,
"hong3": 1687,
"hong4": 1688,
"hong5": 1689,
"hong6": 1690,
"hot1": 1691,
"hot2": 1692,
"hot3": 1693,
"hot4": 1694,
"hot5": 1695,
"hot6": 1696,
"hou1": 1697,
"hou2": 1698,
"hou3": 1699,
"hou4": 1700,
"hou5": 1701,
"hou6": 1702,
"huk1": 1703,
"huk2": 1704,
"huk3": 1705,
"huk4": 1706,
"huk5": 1707,
"huk6": 1708,
"hung1": 1709,
"hung2": 1710,
"hung3": 1711,
"hung4": 1712,
"hung5": 1713,
"hung6": 1714,
"hyun1": 1715,
"hyun2": 1716,
"hyun3": 1717,
"hyun4": 1718,
"hyun5": 1719,
"hyun6": 1720,
"hyut1": 1721,
"hyut2": 1722,
"hyut3": 1723,
"hyut4": 1724,
"hyut5": 1725,
"hyut6": 1726,
"jaa1": 1727,
"jaa2": 1728,
"jaa3": 1729,
"jaa4": 1730,
"jaa5": 1731,
"jaa6": 1732,
"jaai1": 1733,
"jaai2": 1734,
"jaai3": 1735,
"jaai4": 1736,
"jaai5": 1737,
"jaai6": 1738,
"jaak1": 1739,
"jaak2": 1740,
"jaak3": 1741,
"jaak4": 1742,
"jaak5": 1743,
"jaak6": 1744,
"jaang1": 1745,
"jaang2": 1746,
"jaang3": 1747,
"jaang4": 1748,
"jaang5": 1749,
"jaang6": 1750,
"jaap1": 1751,
"jaap2": 1752,
"jaap3": 1753,
"jaap4": 1754,
"jaap5": 1755,
"jaap6": 1756,
"jaau1": 1757,
"jaau2": 1758,
"jaau3": 1759,
"jaau4": 1760,
"jaau5": 1761,
"jaau6": 1762,
"jai1": 1763,
"jai2": 1764,
"jai3": 1765,
"jai4": 1766,
"jai5": 1767,
"jai6": 1768,
"jam1": 1769,
"jam2": 1770,
"jam3": 1771,
"jam4": 1772,
"jam5": 1773,
"jam6": 1774,
"jan1": 1775,
"jan2": 1776,
"jan3": 1777,
"jan4": 1778,
"jan5": 1779,
"jan6": 1780,
"jap1": 1781,
"jap2": 1782,
"jap3": 1783,
"jap4": 1784,
"jap5": 1785,
"jap6": 1786,
"jat1": 1787,
"jat2": 1788,
"jat3": 1789,
"jat4": 1790,
"jat5": 1791,
"jat6": 1792,
"jau1": 1793,
"jau2": 1794,
"jau3": 1795,
"jau4": 1796,
"jau5": 1797,
"jau6": 1798,
"je1": 1799,
"je2": 1800,
"je3": 1801,
"je4": 1802,
"je5": 1803,
"je6": 1804,
"jeng1": 1805,
"jeng2": 1806,
"jeng3": 1807,
"jeng4": 1808,
"jeng5": 1809,
"jeng6": 1810,
"jeoi1": 1811,
"jeoi2": 1812,
"jeoi3": 1813,
"jeoi4": 1814,
"jeoi5": 1815,
"jeoi6": 1816,
"jeon1": 1817,
"jeon2": 1818,
"jeon3": 1819,
"jeon4": 1820,
"jeon5": 1821,
"jeon6": 1822,
"ji1": 1823,
"ji2": 1824,
"ji3": 1825,
"ji4": 1826,
"ji5": 1827,
"ji6": 1828,
"jik1": 1829,
"jik2": 1830,
"jik3": 1831,
"jik4": 1832,
"jik5": 1833,
"jik6": 1834,
"jim1": 1835,
"jim2": 1836,
"jim3": 1837,
"jim4": 1838,
"jim5": 1839,
"jim6": 1840,
"jin1": 1841,
"jin2": 1842,
"jin3": 1843,
"jin4": 1844,
"jin5": 1845,
"jin6": 1846,
"jing1": 1847,
"jing2": 1848,
"jing3": 1849,
"jing4": 1850,
"jing5": 1851,
"jing6": 1852,
"jip1": 1853,
"jip2": 1854,
"jip3": 1855,
"jip4": 1856,
"jip5": 1857,
"jip6": 1858,
"jit1": 1859,
"jit2": 1860,
"jit3": 1861,
"jit4": 1862,
"jit5": 1863,
"jit6": 1864,
"jiu1": 1865,
"jiu2": 1866,
"jiu3": 1867,
"jiu4": 1868,
"jiu5": 1869,
"jiu6": 1870,
"jo1": 1871,
"jo2": 1872,
"jo3": 1873,
"jo4": 1874,
"jo5": 1875,
"jo6": 1876,
"joek1": 1877,
"joek2": 1878,
"joek3": 1879,
"joek4": 1880,
"joek5": 1881,
"joek6": 1882,
"joeng1": 1883,
"joeng2": 1884,
"joeng3": 1885,
"joeng4": 1886,
"joeng5": 1887,
"joeng6": 1888,
"juk1": 1889,
"juk2": 1890,
"juk3": 1891,
"juk4": 1892,
"juk5": 1893,
"juk6": 1894,
"jung1": 1895,
"jung2": 1896,
"jung3": 1897,
"jung4": 1898,
"jung5": 1899,
"jung6": 1900,
"jyu1": 1901,
"jyu2": 1902,
"jyu3": 1903,
"jyu4": 1904,
"jyu5": 1905,
"jyu6": 1906,
"jyun1": 1907,
"jyun2": 1908,
"jyun3": 1909,
"jyun4": 1910,
"jyun5": 1911,
"jyun6": 1912,
"jyut1": 1913,
"jyut2": 1914,
"jyut3": 1915,
"jyut4": 1916,
"jyut5": 1917,
"jyut6": 1918,
"kaa1": 1919,
"kaa2": 1920,
"kaa3": 1921,
"kaa4": 1922,
"kaa5": 1923,
"kaa6": 1924,
"kaai1": 1925,
"kaai2": 1926,
"kaai3": 1927,
"kaai4": 1928,
"kaai5": 1929,
"kaai6": 1930,
"kaak1": 1931,
"kaak2": 1932,
"kaak3": 1933,
"kaak4": 1934,
"kaak5": 1935,
"kaak6": 1936,
"kaam1": 1937,
"kaam2": 1938,
"kaam3": 1939,
"kaam4": 1940,
"kaam5": 1941,
"kaam6": 1942,
"kaan1": 1943,
"kaan2": 1944,
"kaan3": 1945,
"kaan4": 1946,
"kaan5": 1947,
"kaan6": 1948,
"kaap1": 1949,
"kaap2": 1950,
"kaap3": 1951,
"kaap4": 1952,
"kaap5": 1953,
"kaap6": 1954,
"kaat1": 1955,
"kaat2": 1956,
"kaat3": 1957,
"kaat4": 1958,
"kaat5": 1959,
"kaat6": 1960,
"kaau1": 1961,
"kaau2": 1962,
"kaau3": 1963,
"kaau4": 1964,
"kaau5": 1965,
"kaau6": 1966,
"kai1": 1967,
"kai2": 1968,
"kai3": 1969,
"kai4": 1970,
"kai5": 1971,
"kai6": 1972,
"kak1": 1973,
"kak2": 1974,
"kak3": 1975,
"kak4": 1976,
"kak5": 1977,
"kak6": 1978,
"kam1": 1979,
"kam2": 1980,
"kam3": 1981,
"kam4": 1982,
"kam5": 1983,
"kam6": 1984,
"kan1": 1985,
"kan2": 1986,
"kan3": 1987,
"kan4": 1988,
"kan5": 1989,
"kan6": 1990,
"kang1": 1991,
"kang2": 1992,
"kang3": 1993,
"kang4": 1994,
"kang5": 1995,
"kang6": 1996,
"kap1": 1997,
"kap2": 1998,
"kap3": 1999,
"kap4": 2000,
"kap5": 2001,
"kap6": 2002,
"kat1": 2003,
"kat2": 2004,
"kat3": 2005,
"kat4": 2006,
"kat5": 2007,
"kat6": 2008,
"kau1": 2009,
"kau2": 2010,
"kau3": 2011,
"kau4": 2012,
"kau5": 2013,
"kau6": 2014,
"ke1": 2015,
"ke2": 2016,
"ke3": 2017,
"ke4": 2018,
"ke5": 2019,
"ke6": 2020,
"kei1": 2021,
"kei2": 2022,
"kei3": 2023,
"kei4": 2024,
"kei5": 2025,
"kei6": 2026,
"kek1": 2027,
"kek2": 2028,
"kek3": 2029,
"kek4": 2030,
"kek5": 2031,
"kek6": 2032,
"keoi1": 2033,
"keoi2": 2034,
"keoi3": 2035,
"keoi4": 2036,
"keoi5": 2037,
"keoi6": 2038,
"kep1": 2039,
"kep2": 2040,
"kep3": 2041,
"kep4": 2042,
"kep5": 2043,
"kep6": 2044,
"ki1": 2045,
"ki2": 2046,
"ki3": 2047,
"ki4": 2048,
"ki5": 2049,
"ki6": 2050,
"kik1": 2051,
"kik2": 2052,
"kik3": 2053,
"kik4": 2054,
"kik5": 2055,
"kik6": 2056,
"kim1": 2057,
"kim2": 2058,
"kim3": 2059,
"kim4": 2060,
"kim5": 2061,
"kim6": 2062,
"kin1": 2063,
"kin2": 2064,
"kin3": 2065,
"kin4": 2066,
"kin5": 2067,
"kin6": 2068,
"king1": 2069,
"king2": 2070,
"king3": 2071,
"king4": 2072,
"king5": 2073,
"king6": 2074,
"kip1": 2075,
"kip2": 2076,
"kip3": 2077,
"kip4": 2078,
"kip5": 2079,
"kip6": 2080,
"kit1": 2081,
"kit2": 2082,
"kit3": 2083,
"kit4": 2084,
"kit5": 2085,
"kit6": 2086,
"kiu1": 2087,
"kiu2": 2088,
"kiu3": 2089,
"kiu4": 2090,
"kiu5": 2091,
"kiu6": 2092,
"ko1": 2093,
"ko2": 2094,
"ko3": 2095,
"ko4": 2096,
"ko5": 2097,
"ko6": 2098,
"koe1": 2099,
"koe2": 2100,
"koe3": 2101,
"koe4": 2102,
"koe5": 2103,
"koe6": 2104,
"koek1": 2105,
"koek2": 2106,
"koek3": 2107,
"koek4": 2108,
"koek5": 2109,
"koek6": 2110,
"koeng1": 2111,
"koeng2": 2112,
"koeng3": 2113,
"koeng4": 2114,
"koeng5": 2115,
"koeng6": 2116,
"koi1": 2117,
"koi2": 2118,
"koi3": 2119,
"koi4": 2120,
"koi5": 2121,
"koi6": 2122,
"kok1": 2123,
"kok2": 2124,
"kok3": 2125,
"kok4": 2126,
"kok5": 2127,
"kok6": 2128,
"kong1": 2129,
"kong2": 2130,
"kong3": 2131,
"kong4": 2132,
"kong5": 2133,
"kong6": 2134,
"ku1": 2135,
"ku2": 2136,
"ku3": 2137,
"ku4": 2138,
"ku5": 2139,
"ku6": 2140,
"kui1": 2141,
"kui2": 2142,
"kui3": 2143,
"kui4": 2144,
"kui5": 2145,
"kui6": 2146,
"kuk1": 2147,
"kuk2": 2148,
"kuk3": 2149,
"kuk4": 2150,
"kuk5": 2151,
"kuk6": 2152,
"kung1": 2153,
"kung2": 2154,
"kung3": 2155,
"kung4": 2156,
"kung5": 2157,
"kung6": 2158,
"kut1": 2159,
"kut2": 2160,
"kut3": 2161,
"kut4": 2162,
"kut5": 2163,
"kut6": 2164,
"kwaa1": 2165,
"kwaa2": 2166,
"kwaa3": 2167,
"kwaa4": 2168,
"kwaa5": 2169,
"kwaa6": 2170,
"kwaai1": 2171,
"kwaai2": 2172,
"kwaai3": 2173,
"kwaai4": 2174,
"kwaai5": 2175,
"kwaai6": 2176,
"kwaak1": 2177,
"kwaak2": 2178,
"kwaak3": 2179,
"kwaak4": 2180,
"kwaak5": 2181,
"kwaak6": 2182,
"kwaan1": 2183,
"kwaan2": 2184,
"kwaan3": 2185,
"kwaan4": 2186,
"kwaan5": 2187,
"kwaan6": 2188,
"kwaang1": 2189,
"kwaang2": 2190,
"kwaang3": 2191,
"kwaang4": 2192,
"kwaang5": 2193,
"kwaang6": 2194,
"kwaat1": 2195,
"kwaat2": 2196,
"kwaat3": 2197,
"kwaat4": 2198,
"kwaat5": 2199,
"kwaat6": 2200,
"kwai1": 2201,
"kwai2": 2202,
"kwai3": 2203,
"kwai4": 2204,
"kwai5": 2205,
"kwai6": 2206,
"kwan1": 2207,
"kwan2": 2208,
"kwan3": 2209,
"kwan4": 2210,
"kwan5": 2211,
"kwan6": 2212,
"kwik1": 2213,
"kwik2": 2214,
"kwik3": 2215,
"kwik4": 2216,
"kwik5": 2217,
"kwik6": 2218,
"kwok1": 2219,
"kwok2": 2220,
"kwok3": 2221,
"kwok4": 2222,
"kwok5": 2223,
"kwok6": 2224,
"kwong1": 2225,
"kwong2": 2226,
"kwong3": 2227,
"kwong4": 2228,
"kwong5": 2229,
"kwong6": 2230,
"kwui1": 2231,
"kwui2": 2232,
"kwui3": 2233,
"kwui4": 2234,
"kwui5": 2235,
"kwui6": 2236,
"kwun1": 2237,
"kwun2": 2238,
"kwun3": 2239,
"kwun4": 2240,
"kwun5": 2241,
"kwun6": 2242,
"kyun1": 2243,
"kyun2": 2244,
"kyun3": 2245,
"kyun4": 2246,
"kyun5": 2247,
"kyun6": 2248,
"kyut1": 2249,
"kyut2": 2250,
"kyut3": 2251,
"kyut4": 2252,
"kyut5": 2253,
"kyut6": 2254,
"laa1": 2255,
"laa2": 2256,
"laa3": 2257,
"laa4": 2258,
"laa5": 2259,
"laa6": 2260,
"laai1": 2261,
"laai2": 2262,
"laai3": 2263,
"laai4": 2264,
"laai5": 2265,
"laai6": 2266,
"laak1": 2267,
"laak2": 2268,
"laak3": 2269,
"laak4": 2270,
"laak5": 2271,
"laak6": 2272,
"laam1": 2273,
"laam2": 2274,
"laam3": 2275,
"laam4": 2276,
"laam5": 2277,
"laam6": 2278,
"laan1": 2279,
"laan2": 2280,
"laan3": 2281,
"laan4": 2282,
"laan5": 2283,
"laan6": 2284,
"laang1": 2285,
"laang2": 2286,
"laang3": 2287,
"laang4": 2288,
"laang5": 2289,
"laang6": 2290,
"laap1": 2291,
"laap2": 2292,
"laap3": 2293,
"laap4": 2294,
"laap5": 2295,
"laap6": 2296,
"laat1": 2297,
"laat2": 2298,
"laat3": 2299,
"laat4": 2300,
"laat5": 2301,
"laat6": 2302,
"laau1": 2303,
"laau2": 2304,
"laau3": 2305,
"laau4": 2306,
"laau5": 2307,
"laau6": 2308,
"lai1": 2309,
"lai2": 2310,
"lai3": 2311,
"lai4": 2312,
"lai5": 2313,
"lai6": 2314,
"lak1": 2315,
"lak2": 2316,
"lak3": 2317,
"lak4": 2318,
"lak5": 2319,
"lak6": 2320,
"lam1": 2321,
"lam2": 2322,
"lam3": 2323,
"lam4": 2324,
"lam5": 2325,
"lam6": 2326,
"lan1": 2327,
"lan2": 2328,
"lan3": 2329,
"lan4": 2330,
"lan5": 2331,
"lan6": 2332,
"lang1": 2333,
"lang2": 2334,
"lang3": 2335,
"lang4": 2336,
"lang5": 2337,
"lang6": 2338,
"lap1": 2339,
"lap2": 2340,
"lap3": 2341,
"lap4": 2342,
"lap5": 2343,
"lap6": 2344,
"lat1": 2345,
"lat2": 2346,
"lat3": 2347,
"lat4": 2348,
"lat5": 2349,
"lat6": 2350,
"lau1": 2351,
"lau2": 2352,
"lau3": 2353,
"lau4": 2354,
"lau5": 2355,
"lau6": 2356,
"le1": 2357,
"le2": 2358,
"le3": 2359,
"le4": 2360,
"le5": 2361,
"le6": 2362,
"lei1": 2363,
"lei2": 2364,
"lei3": 2365,
"lei4": 2366,
"lei5": 2367,
"lei6": 2368,
"lek1": 2369,
"lek2": 2370,
"lek3": 2371,
"lek4": 2372,
"lek5": 2373,
"lek6": 2374,
"lem1": 2375,
"lem2": 2376,
"lem3": 2377,
"lem4": 2378,
"lem5": 2379,
"lem6": 2380,
"leng1": 2381,
"leng2": 2382,
"leng3": 2383,
"leng4": 2384,
"leng5": 2385,
"leng6": 2386,
"leoi1": 2387,
"leoi2": 2388,
"leoi3": 2389,
"leoi4": 2390,
"leoi5": 2391,
"leoi6": 2392,
"leon1": 2393,
"leon2": 2394,
"leon3": 2395,
"leon4": 2396,
"leon5": 2397,
"leon6": 2398,
"leot1": 2399,
"leot2": 2400,
"leot3": 2401,
"leot4": 2402,
"leot5": 2403,
"leot6": 2404,
"li1": 2405,
"li2": 2406,
"li3": 2407,
"li4": 2408,
"li5": 2409,
"li6": 2410,
"lik1": 2411,
"lik2": 2412,
"lik3": 2413,
"lik4": 2414,
"lik5": 2415,
"lik6": 2416,
"lim1": 2417,
"lim2": 2418,
"lim3": 2419,
"lim4": 2420,
"lim5": 2421,
"lim6": 2422,
"lin1": 2423,
"lin2": 2424,
"lin3": 2425,
"lin4": 2426,
"lin5": 2427,
"lin6": 2428,
"ling1": 2429,
"ling2": 2430,
"ling3": 2431,
"ling4": 2432,
"ling5": 2433,
"ling6": 2434,
"lip1": 2435,
"lip2": 2436,
"lip3": 2437,
"lip4": 2438,
"lip5": 2439,
"lip6": 2440,
"lit1": 2441,
"lit2": 2442,
"lit3": 2443,
"lit4": 2444,
"lit5": 2445,
"lit6": 2446,
"liu1": 2447,
"liu2": 2448,
"liu3": 2449,
"liu4": 2450,
"liu5": 2451,
"liu6": 2452,
"lo1": 2453,
"lo2": 2454,
"lo3": 2455,
"lo4": 2456,
"lo5": 2457,
"lo6": 2458,
"loe1": 2459,
"loe2": 2460,
"loe3": 2461,
"loe4": 2462,
"loe5": 2463,
"loe6": 2464,
"loei1": 2465,
"loei2": 2466,
"loei3": 2467,
"loei4": 2468,
"loei5": 2469,
"loei6": 2470,
"loek1": 2471,
"loek2": 2472,
"loek3": 2473,
"loek4": 2474,
"loek5": 2475,
"loek6": 2476,
"loeng1": 2477,
"loeng2": 2478,
"loeng3": 2479,
"loeng4": 2480,
"loeng5": 2481,
"loeng6": 2482,
"loet1": 2483,
"loet2": 2484,
"loet3": 2485,
"loet4": 2486,
"loet5": 2487,
"loet6": 2488,
"loi1": 2489,
"loi2": 2490,
"loi3": 2491,
"loi4": 2492,
"loi5": 2493,
"loi6": 2494,
"lok1": 2495,
"lok2": 2496,
"lok3": 2497,
"lok4": 2498,
"lok5": 2499,
"lok6": 2500,
"long1": 2501,
"long2": 2502,
"long3": 2503,
"long4": 2504,
"long5": 2505,
"long6": 2506,
"lou1": 2507,
"lou2": 2508,
"lou3": 2509,
"lou4": 2510,
"lou5": 2511,
"lou6": 2512,
"luk1": 2513,
"luk2": 2514,
"luk3": 2515,
"luk4": 2516,
"luk5": 2517,
"luk6": 2518,
"lun1": 2519,
"lun2": 2520,
"lun3": 2521,
"lun4": 2522,
"lun5": 2523,
"lun6": 2524,
"lung1": 2525,
"lung2": 2526,
"lung3": 2527,
"lung4": 2528,
"lung5": 2529,
"lung6": 2530,
"lyun1": 2531,
"lyun2": 2532,
"lyun3": 2533,
"lyun4": 2534,
"lyun5": 2535,
"lyun6": 2536,
"lyut1": 2537,
"lyut2": 2538,
"lyut3": 2539,
"lyut4": 2540,
"lyut5": 2541,
"lyut6": 2542,
"m1": 2543,
"m2": 2544,
"m3": 2545,
"m4": 2546,
"m5": 2547,
"m6": 2548,
"maa1": 2549,
"maa2": 2550,
"maa3": 2551,
"maa4": 2552,
"maa5": 2553,
"maa6": 2554,
"maai1": 2555,
"maai2": 2556,
"maai3": 2557,
"maai4": 2558,
"maai5": 2559,
"maai6": 2560,
"maak1": 2561,
"maak2": 2562,
"maak3": 2563,
"maak4": 2564,
"maak5": 2565,
"maak6": 2566,
"maan1": 2567,
"maan2": 2568,
"maan3": 2569,
"maan4": 2570,
"maan5": 2571,
"maan6": 2572,
"maang1": 2573,
"maang2": 2574,
"maang3": 2575,
"maang4": 2576,
"maang5": 2577,
"maang6": 2578,
"maat1": 2579,
"maat2": 2580,
"maat3": 2581,
"maat4": 2582,
"maat5": 2583,
"maat6": 2584,
"maau1": 2585,
"maau2": 2586,
"maau3": 2587,
"maau4": 2588,
"maau5": 2589,
"maau6": 2590,
"mai1": 2591,
"mai2": 2592,
"mai3": 2593,
"mai4": 2594,
"mai5": 2595,
"mai6": 2596,
"mak1": 2597,
"mak2": 2598,
"mak3": 2599,
"mak4": 2600,
"mak5": 2601,
"mak6": 2602,
"mam1": 2603,
"mam2": 2604,
"mam3": 2605,
"mam4": 2606,
"mam5": 2607,
"mam6": 2608,
"man1": 2609,
"man2": 2610,
"man3": 2611,
"man4": 2612,
"man5": 2613,
"man6": 2614,
"mang1": 2615,
"mang2": 2616,
"mang3": 2617,
"mang4": 2618,
"mang5": 2619,
"mang6": 2620,
"mat1": 2621,
"mat2": 2622,
"mat3": 2623,
"mat4": 2624,
"mat5": 2625,
"mat6": 2626,
"mau1": 2627,
"mau2": 2628,
"mau3": 2629,
"mau4": 2630,
"mau5": 2631,
"mau6": 2632,
"me1": 2633,
"me2": 2634,
"me3": 2635,
"me4": 2636,
"me5": 2637,
"me6": 2638,
"mei1": 2639,
"mei2": 2640,
"mei3": 2641,
"mei4": 2642,
"mei5": 2643,
"mei6": 2644,
"meng1": 2645,
"meng2": 2646,
"meng3": 2647,
"meng4": 2648,
"meng5": 2649,
"meng6": 2650,
"mi1": 2651,
"mi2": 2652,
"mi3": 2653,
"mi4": 2654,
"mi5": 2655,
"mi6": 2656,
"mik1": 2657,
"mik2": 2658,
"mik3": 2659,
"mik4": 2660,
"mik5": 2661,
"mik6": 2662,
"min1": 2663,
"min2": 2664,
"min3": 2665,
"min4": 2666,
"min5": 2667,
"min6": 2668,
"ming1": 2669,
"ming2": 2670,
"ming3": 2671,
"ming4": 2672,
"ming5": 2673,
"ming6": 2674,
"mit1": 2675,
"mit2": 2676,
"mit3": 2677,
"mit4": 2678,
"mit5": 2679,
"mit6": 2680,
"miu1": 2681,
"miu2": 2682,
"miu3": 2683,
"miu4": 2684,
"miu5": 2685,
"miu6": 2686,
"mo1": 2687,
"mo2": 2688,
"mo3": 2689,
"mo4": 2690,
"mo5": 2691,
"mo6": 2692,
"moi1": 2693,
"moi2": 2694,
"moi3": 2695,
"moi4": 2696,
"moi5": 2697,
"moi6": 2698,
"mok1": 2699,
"mok2": 2700,
"mok3": 2701,
"mok4": 2702,
"mok5": 2703,
"mok6": 2704,
"mong1": 2705,
"mong2": 2706,
"mong3": 2707,
"mong4": 2708,
"mong5": 2709,
"mong6": 2710,
"mou1": 2711,
"mou2": 2712,
"mou3": 2713,
"mou4": 2714,
"mou5": 2715,
"mou6": 2716,
"mui1": 2717,
"mui2": 2718,
"mui3": 2719,
"mui4": 2720,
"mui5": 2721,
"mui6": 2722,
"muk1": 2723,
"muk2": 2724,
"muk3": 2725,
"muk4": 2726,
"muk5": 2727,
"muk6": 2728,
"mun1": 2729,
"mun2": 2730,
"mun3": 2731,
"mun4": 2732,
"mun5": 2733,
"mun6": 2734,
"mung1": 2735,
"mung2": 2736,
"mung3": 2737,
"mung4": 2738,
"mung5": 2739,
"mung6": 2740,
"mut1": 2741,
"mut2": 2742,
"mut3": 2743,
"mut4": 2744,
"mut5": 2745,
"mut6": 2746,
"naa1": 2747,
"naa2": 2748,
"naa3": 2749,
"naa4": 2750,
"naa5": 2751,
"naa6": 2752,
"naai1": 2753,
"naai2": 2754,
"naai3": 2755,
"naai4": 2756,
"naai5": 2757,
"naai6": 2758,
"naam1": 2759,
"naam2": 2760,
"naam3": 2761,
"naam4": 2762,
"naam5": 2763,
"naam6": 2764,
"naan1": 2765,
"naan2": 2766,
"naan3": 2767,
"naan4": 2768,
"naan5": 2769,
"naan6": 2770,
"naang1": 2771,
"naang2": 2772,
"naang3": 2773,
"naang4": 2774,
"naang5": 2775,
"naang6": 2776,
"naap1": 2777,
"naap2": 2778,
"naap3": 2779,
"naap4": 2780,
"naap5": 2781,
"naap6": 2782,
"naat1": 2783,
"naat2": 2784,
"naat3": 2785,
"naat4": 2786,
"naat5": 2787,
"naat6": 2788,
"naau1": 2789,
"naau2": 2790,
"naau3": 2791,
"naau4": 2792,
"naau5": 2793,
"naau6": 2794,
"nai1": 2795,
"nai2": 2796,
"nai3": 2797,
"nai4": 2798,
"nai5": 2799,
"nai6": 2800,
"nak1": 2801,
"nak2": 2802,
"nak3": 2803,
"nak4": 2804,
"nak5": 2805,
"nak6": 2806,
"nam1": 2807,
"nam2": 2808,
"nam3": 2809,
"nam4": 2810,
"nam5": 2811,
"nam6": 2812,
"nan1": 2813,
"nan2": 2814,
"nan3": 2815,
"nan4": 2816,
"nan5": 2817,
"nan6": 2818,
"nang1": 2819,
"nang2": 2820,
"nang3": 2821,
"nang4": 2822,
"nang5": 2823,
"nang6": 2824,
"nap1": 2825,
"nap2": 2826,
"nap3": 2827,
"nap4": 2828,
"nap5": 2829,
"nap6": 2830,
"nat1": 2831,
"nat2": 2832,
"nat3": 2833,
"nat4": 2834,
"nat5": 2835,
"nat6": 2836,
"nau1": 2837,
"nau2": 2838,
"nau3": 2839,
"nau4": 2840,
"nau5": 2841,
"nau6": 2842,
"ne1": 2843,
"ne2": 2844,
"ne3": 2845,
"ne4": 2846,
"ne5": 2847,
"ne6": 2848,
"nei1": 2849,
"nei2": 2850,
"nei3": 2851,
"nei4": 2852,
"nei5": 2853,
"nei6": 2854,
"neng1": 2855,
"neng2": 2856,
"neng3": 2857,
"neng4": 2858,
"neng5": 2859,
"neng6": 2860,
"neoi1": 2861,
"neoi2": 2862,
"neoi3": 2863,
"neoi4": 2864,
"neoi5": 2865,
"neoi6": 2866,
"neot1": 2867,
"neot2": 2868,
"neot3": 2869,
"neot4": 2870,
"neot5": 2871,
"neot6": 2872,
"ng1": 2873,
"ng2": 2874,
"ng3": 2875,
"ng4": 2876,
"ng5": 2877,
"ng6": 2878,
"ngaa1": 2879,
"ngaa2": 2880,
"ngaa3": 2881,
"ngaa4": 2882,
"ngaa5": 2883,
"ngaa6": 2884,
"ngaai1": 2885,
"ngaai2": 2886,
"ngaai3": 2887,
"ngaai4": 2888,
"ngaai5": 2889,
"ngaai6": 2890,
"ngaak1": 2891,
"ngaak2": 2892,
"ngaak3": 2893,
"ngaak4": 2894,
"ngaak5": 2895,
"ngaak6": 2896,
"ngaam1": 2897,
"ngaam2": 2898,
"ngaam3": 2899,
"ngaam4": 2900,
"ngaam5": 2901,
"ngaam6": 2902,
"ngaan1": 2903,
"ngaan2": 2904,
"ngaan3": 2905,
"ngaan4": 2906,
"ngaan5": 2907,
"ngaan6": 2908,
"ngaang1": 2909,
"ngaang2": 2910,
"ngaang3": 2911,
"ngaang4": 2912,
"ngaang5": 2913,
"ngaang6": 2914,
"ngaap1": 2915,
"ngaap2": 2916,
"ngaap3": 2917,
"ngaap4": 2918,
"ngaap5": 2919,
"ngaap6": 2920,
"ngaat1": 2921,
"ngaat2": 2922,
"ngaat3": 2923,
"ngaat4": 2924,
"ngaat5": 2925,
"ngaat6": 2926,
"ngaau1": 2927,
"ngaau2": 2928,
"ngaau3": 2929,
"ngaau4": 2930,
"ngaau5": 2931,
"ngaau6": 2932,
"ngai1": 2933,
"ngai2": 2934,
"ngai3": 2935,
"ngai4": 2936,
"ngai5": 2937,
"ngai6": 2938,
"ngak1": 2939,
"ngak2": 2940,
"ngak3": 2941,
"ngak4": 2942,
"ngak5": 2943,
"ngak6": 2944,
"ngam1": 2945,
"ngam2": 2946,
"ngam3": 2947,
"ngam4": 2948,
"ngam5": 2949,
"ngam6": 2950,
"ngan1": 2951,
"ngan2": 2952,
"ngan3": 2953,
"ngan4": 2954,
"ngan5": 2955,
"ngan6": 2956,
"ngang1": 2957,
"ngang2": 2958,
"ngang3": 2959,
"ngang4": 2960,
"ngang5": 2961,
"ngang6": 2962,
"ngap1": 2963,
"ngap2": 2964,
"ngap3": 2965,
"ngap4": 2966,
"ngap5": 2967,
"ngap6": 2968,
"ngat1": 2969,
"ngat2": 2970,
"ngat3": 2971,
"ngat4": 2972,
"ngat5": 2973,
"ngat6": 2974,
"ngau1": 2975,
"ngau2": 2976,
"ngau3": 2977,
"ngau4": 2978,
"ngau5": 2979,
"ngau6": 2980,
"nge1": 2981,
"nge2": 2982,
"nge3": 2983,
"nge4": 2984,
"nge5": 2985,
"nge6": 2986,
"ngi1": 2987,
"ngi2": 2988,
"ngi3": 2989,
"ngi4": 2990,
"ngi5": 2991,
"ngi6": 2992,
"ngit1": 2993,
"ngit2": 2994,
"ngit3": 2995,
"ngit4": 2996,
"ngit5": 2997,
"ngit6": 2998,
"ngo1": 2999,
"ngo2": 3000,
"ngo3": 3001,
"ngo4": 3002,
"ngo5": 3003,
"ngo6": 3004,
"ngoi1": 3005,
"ngoi2": 3006,
"ngoi3": 3007,
"ngoi4": 3008,
"ngoi5": 3009,
"ngoi6": 3010,
"ngok1": 3011,
"ngok2": 3012,
"ngok3": 3013,
"ngok4": 3014,
"ngok5": 3015,
"ngok6": 3016,
"ngon1": 3017,
"ngon2": 3018,
"ngon3": 3019,
"ngon4": 3020,
"ngon5": 3021,
"ngon6": 3022,
"ngong1": 3023,
"ngong2": 3024,
"ngong3": 3025,
"ngong4": 3026,
"ngong5": 3027,
"ngong6": 3028,
"ngou1": 3029,
"ngou2": 3030,
"ngou3": 3031,
"ngou4": 3032,
"ngou5": 3033,
"ngou6": 3034,
"nguk1": 3035,
"nguk2": 3036,
"nguk3": 3037,
"nguk4": 3038,
"nguk5": 3039,
"nguk6": 3040,
"ngung1": 3041,
"ngung2": 3042,
"ngung3": 3043,
"ngung4": 3044,
"ngung5": 3045,
"ngung6": 3046,
"ni1": 3047,
"ni2": 3048,
"ni3": 3049,
"ni4": 3050,
"ni5": 3051,
"ni6": 3052,
"nik1": 3053,
"nik2": 3054,
"nik3": 3055,
"nik4": 3056,
"nik5": 3057,
"nik6": 3058,
"nim1": 3059,
"nim2": 3060,
"nim3": 3061,
"nim4": 3062,
"nim5": 3063,
"nim6": 3064,
"nin1": 3065,
"nin2": 3066,
"nin3": 3067,
"nin4": 3068,
"nin5": 3069,
"nin6": 3070,
"ning1": 3071,
"ning2": 3072,
"ning3": 3073,
"ning4": 3074,
"ning5": 3075,
"ning6": 3076,
"nip1": 3077,
"nip2": 3078,
"nip3": 3079,
"nip4": 3080,
"nip5": 3081,
"nip6": 3082,
"nit1": 3083,
"nit2": 3084,
"nit3": 3085,
"nit4": 3086,
"nit5": 3087,
"nit6": 3088,
"niu1": 3089,
"niu2": 3090,
"niu3": 3091,
"niu4": 3092,
"niu5": 3093,
"niu6": 3094,
"no1": 3095,
"no2": 3096,
"no3": 3097,
"no4": 3098,
"no5": 3099,
"no6": 3100,
"noei1": 3101,
"noei2": 3102,
"noei3": 3103,
"noei4": 3104,
"noei5": 3105,
"noei6": 3106,
"noeng1": 3107,
"noeng2": 3108,
"noeng3": 3109,
"noeng4": 3110,
"noeng5": 3111,
"noeng6": 3112,
"noi1": 3113,
"noi2": 3114,
"noi3": 3115,
"noi4": 3116,
"noi5": 3117,
"noi6": 3118,
"nok1": 3119,
"nok2": 3120,
"nok3": 3121,
"nok4": 3122,
"nok5": 3123,
"nok6": 3124,
"nong1": 3125,
"nong2": 3126,
"nong3": 3127,
"nong4": 3128,
"nong5": 3129,
"nong6": 3130,
"nou1": 3131,
"nou2": 3132,
"nou3": 3133,
"nou4": 3134,
"nou5": 3135,
"nou6": 3136,
"nuk1": 3137,
"nuk2": 3138,
"nuk3": 3139,
"nuk4": 3140,
"nuk5": 3141,
"nuk6": 3142,
"nung1": 3143,
"nung2": 3144,
"nung3": 3145,
"nung4": 3146,
"nung5": 3147,
"nung6": 3148,
"nyun1": 3149,
"nyun2": 3150,
"nyun3": 3151,
"nyun4": 3152,
"nyun5": 3153,
"nyun6": 3154,
"o1": 3155,
"o2": 3156,
"o3": 3157,
"o4": 3158,
"o5": 3159,
"o6": 3160,
"oe1": 3161,
"oe2": 3162,
"oe3": 3163,
"oe4": 3164,
"oe5": 3165,
"oe6": 3166,
"oi1": 3167,
"oi2": 3168,
"oi3": 3169,
"oi4": 3170,
"oi5": 3171,
"oi6": 3172,
"ok1": 3173,
"ok2": 3174,
"ok3": 3175,
"ok4": 3176,
"ok5": 3177,
"ok6": 3178,
"om1": 3179,
"om2": 3180,
"om3": 3181,
"om4": 3182,
"om5": 3183,
"om6": 3184,
"on1": 3185,
"on2": 3186,
"on3": 3187,
"on4": 3188,
"on5": 3189,
"on6": 3190,
"ong1": 3191,
"ong2": 3192,
"ong3": 3193,
"ong4": 3194,
"ong5": 3195,
"ong6": 3196,
"ou1": 3197,
"ou2": 3198,
"ou3": 3199,
"ou4": 3200,
"ou5": 3201,
"ou6": 3202,
"paa1": 3203,
"paa2": 3204,
"paa3": 3205,
"paa4": 3206,
"paa5": 3207,
"paa6": 3208,
"paai1": 3209,
"paai2": 3210,
"paai3": 3211,
"paai4": 3212,
"paai5": 3213,
"paai6": 3214,
"paak1": 3215,
"paak2": 3216,
"paak3": 3217,
"paak4": 3218,
"paak5": 3219,
"paak6": 3220,
"paan1": 3221,
"paan2": 3222,
"paan3": 3223,
"paan4": 3224,
"paan5": 3225,
"paan6": 3226,
"paang1": 3227,
"paang2": 3228,
"paang3": 3229,
"paang4": 3230,
"paang5": 3231,
"paang6": 3232,
"paat1": 3233,
"paat2": 3234,
"paat3": 3235,
"paat4": 3236,
"paat5": 3237,
"paat6": 3238,
"paau1": 3239,
"paau2": 3240,
"paau3": 3241,
"paau4": 3242,
"paau5": 3243,
"paau6": 3244,
"pai1": 3245,
"pai2": 3246,
"pai3": 3247,
"pai4": 3248,
"pai5": 3249,
"pai6": 3250,
"pak1": 3251,
"pak2": 3252,
"pak3": 3253,
"pak4": 3254,
"pak5": 3255,
"pak6": 3256,
"pan1": 3257,
"pan2": 3258,
"pan3": 3259,
"pan4": 3260,
"pan5": 3261,
"pan6": 3262,
"pang1": 3263,
"pang2": 3264,
"pang3": 3265,
"pang4": 3266,
"pang5": 3267,
"pang6": 3268,
"pat1": 3269,
"pat2": 3270,
"pat3": 3271,
"pat4": 3272,
"pat5": 3273,
"pat6": 3274,
"pau1": 3275,
"pau2": 3276,
"pau3": 3277,
"pau4": 3278,
"pau5": 3279,
"pau6": 3280,
"pe1": 3281,
"pe2": 3282,
"pe3": 3283,
"pe4": 3284,
"pe5": 3285,
"pe6": 3286,
"pei1": 3287,
"pei2": 3288,
"pei3": 3289,
"pei4": 3290,
"pei5": 3291,
"pei6": 3292,
"pek1": 3293,
"pek2": 3294,
"pek3": 3295,
"pek4": 3296,
"pek5": 3297,
"pek6": 3298,
"peng1": 3299,
"peng2": 3300,
"peng3": 3301,
"peng4": 3302,
"peng5": 3303,
"peng6": 3304,
"pet1": 3305,
"pet2": 3306,
"pet3": 3307,
"pet4": 3308,
"pet5": 3309,
"pet6": 3310,
"pik1": 3311,
"pik2": 3312,
"pik3": 3313,
"pik4": 3314,
"pik5": 3315,
"pik6": 3316,
"pin1": 3317,
"pin2": 3318,
"pin3": 3319,
"pin4": 3320,
"pin5": 3321,
"pin6": 3322,
"ping1": 3323,
"ping2": 3324,
"ping3": 3325,
"ping4": 3326,
"ping5": 3327,
"ping6": 3328,
"pit1": 3329,
"pit2": 3330,
"pit3": 3331,
"pit4": 3332,
"pit5": 3333,
"pit6": 3334,
"piu1": 3335,
"piu2": 3336,
"piu3": 3337,
"piu4": 3338,
"piu5": 3339,
"piu6": 3340,
"po1": 3341,
"po2": 3342,
"po3": 3343,
"po4": 3344,
"po5": 3345,
"po6": 3346,
"pok1": 3347,
"pok2": 3348,
"pok3": 3349,
"pok4": 3350,
"pok5": 3351,
"pok6": 3352,
"pong1": 3353,
"pong2": 3354,
"pong3": 3355,
"pong4": 3356,
"pong5": 3357,
"pong6": 3358,
"pou1": 3359,
"pou2": 3360,
"pou3": 3361,
"pou4": 3362,
"pou5": 3363,
"pou6": 3364,
"pui1": 3365,
"pui2": 3366,
"pui3": 3367,
"pui4": 3368,
"pui5": 3369,
"pui6": 3370,
"puk1": 3371,
"puk2": 3372,
"puk3": 3373,
"puk4": 3374,
"puk5": 3375,
"puk6": 3376,
"pun1": 3377,
"pun2": 3378,
"pun3": 3379,
"pun4": 3380,
"pun5": 3381,
"pun6": 3382,
"pung1": 3383,
"pung2": 3384,
"pung3": 3385,
"pung4": 3386,
"pung5": 3387,
"pung6": 3388,
"put1": 3389,
"put2": 3390,
"put3": 3391,
"put4": 3392,
"put5": 3393,
"put6": 3394,
"saa1": 3395,
"saa2": 3396,
"saa3": 3397,
"saa4": 3398,
"saa5": 3399,
"saa6": 3400,
"saai1": 3401,
"saai2": 3402,
"saai3": 3403,
"saai4": 3404,
"saai5": 3405,
"saai6": 3406,
"saak1": 3407,
"saak2": 3408,
"saak3": 3409,
"saak4": 3410,
"saak5": 3411,
"saak6": 3412,
"saam1": 3413,
"saam2": 3414,
"saam3": 3415,
"saam4": 3416,
"saam5": 3417,
"saam6": 3418,
"saan1": 3419,
"saan2": 3420,
"saan3": 3421,
"saan4": 3422,
"saan5": 3423,
"saan6": 3424,
"saang1": 3425,
"saang2": 3426,
"saang3": 3427,
"saang4": 3428,
"saang5": 3429,
"saang6": 3430,
"saap1": 3431,
"saap2": 3432,
"saap3": 3433,
"saap4": 3434,
"saap5": 3435,
"saap6": 3436,
"saat1": 3437,
"saat2": 3438,
"saat3": 3439,
"saat4": 3440,
"saat5": 3441,
"saat6": 3442,
"saau1": 3443,
"saau2": 3444,
"saau3": 3445,
"saau4": 3446,
"saau5": 3447,
"saau6": 3448,
"sai1": 3449,
"sai2": 3450,
"sai3": 3451,
"sai4": 3452,
"sai5": 3453,
"sai6": 3454,
"sak1": 3455,
"sak2": 3456,
"sak3": 3457,
"sak4": 3458,
"sak5": 3459,
"sak6": 3460,
"sam1": 3461,
"sam2": 3462,
"sam3": 3463,
"sam4": 3464,
"sam5": 3465,
"sam6": 3466,
"san1": 3467,
"san2": 3468,
"san3": 3469,
"san4": 3470,
"san5": 3471,
"san6": 3472,
"sang1": 3473,
"sang2": 3474,
"sang3": 3475,
"sang4": 3476,
"sang5": 3477,
"sang6": 3478,
"sap1": 3479,
"sap2": 3480,
"sap3": 3481,
"sap4": 3482,
"sap5": 3483,
"sap6": 3484,
"sat1": 3485,
"sat2": 3486,
"sat3": 3487,
"sat4": 3488,
"sat5": 3489,
"sat6": 3490,
"sau1": 3491,
"sau2": 3492,
"sau3": 3493,
"sau4": 3494,
"sau5": 3495,
"sau6": 3496,
"se1": 3497,
"se2": 3498,
"se3": 3499,
"se4": 3500,
"se5": 3501,
"se6": 3502,
"sei1": 3503,
"sei2": 3504,
"sei3": 3505,
"sei4": 3506,
"sei5": 3507,
"sei6": 3508,
"sek1": 3509,
"sek2": 3510,
"sek3": 3511,
"sek4": 3512,
"sek5": 3513,
"sek6": 3514,
"seng1": 3515,
"seng2": 3516,
"seng3": 3517,
"seng4": 3518,
"seng5": 3519,
"seng6": 3520,
"seoi1": 3521,
"seoi2": 3522,
"seoi3": 3523,
"seoi4": 3524,
"seoi5": 3525,
"seoi6": 3526,
"seon1": 3527,
"seon2": 3528,
"seon3": 3529,
"seon4": 3530,
"seon5": 3531,
"seon6": 3532,
"seot1": 3533,
"seot2": 3534,
"seot3": 3535,
"seot4": 3536,
"seot5": 3537,
"seot6": 3538,
"si1": 3539,
"si2": 3540,
"si3": 3541,
"si4": 3542,
"si5": 3543,
"si6": 3544,
"sik1": 3545,
"sik2": 3546,
"sik3": 3547,
"sik4": 3548,
"sik5": 3549,
"sik6": 3550,
"sim1": 3551,
"sim2": 3552,
"sim3": 3553,
"sim4": 3554,
"sim5": 3555,
"sim6": 3556,
"sin1": 3557,
"sin2": 3558,
"sin3": 3559,
"sin4": 3560,
"sin5": 3561,
"sin6": 3562,
"sing1": 3563,
"sing2": 3564,
"sing3": 3565,
"sing4": 3566,
"sing5": 3567,
"sing6": 3568,
"sip1": 3569,
"sip2": 3570,
"sip3": 3571,
"sip4": 3572,
"sip5": 3573,
"sip6": 3574,
"sit1": 3575,
"sit2": 3576,
"sit3": 3577,
"sit4": 3578,
"sit5": 3579,
"sit6": 3580,
"siu1": 3581,
"siu2": 3582,
"siu3": 3583,
"siu4": 3584,
"siu5": 3585,
"siu6": 3586,
"so1": 3587,
"so2": 3588,
"so3": 3589,
"so4": 3590,
"so5": 3591,
"so6": 3592,
"soe1": 3593,
"soe2": 3594,
"soe3": 3595,
"soe4": 3596,
"soe5": 3597,
"soe6": 3598,
"soek1": 3599,
"soek2": 3600,
"soek3": 3601,
"soek4": 3602,
"soek5": 3603,
"soek6": 3604,
"soeng1": 3605,
"soeng2": 3606,
"soeng3": 3607,
"soeng4": 3608,
"soeng5": 3609,
"soeng6": 3610,
"soet1": 3611,
"soet2": 3612,
"soet3": 3613,
"soet4": 3614,
"soet5": 3615,
"soet6": 3616,
"soi1": 3617,
"soi2": 3618,
"soi3": 3619,
"soi4": 3620,
"soi5": 3621,
"soi6": 3622,
"sok1": 3623,
"sok2": 3624,
"sok3": 3625,
"sok4": 3626,
"sok5": 3627,
"sok6": 3628,
"song1": 3629,
"song2": 3630,
"song3": 3631,
"song4": 3632,
"song5": 3633,
"song6": 3634,
"sou1": 3635,
"sou2": 3636,
"sou3": 3637,
"sou4": 3638,
"sou5": 3639,
"sou6": 3640,
"suk1": 3641,
"suk2": 3642,
"suk3": 3643,
"suk4": 3644,
"suk5": 3645,
"suk6": 3646,
"sung1": 3647,
"sung2": 3648,
"sung3": 3649,
"sung4": 3650,
"sung5": 3651,
"sung6": 3652,
"syu1": 3653,
"syu2": 3654,
"syu3": 3655,
"syu4": 3656,
"syu5": 3657,
"syu6": 3658,
"syun1": 3659,
"syun2": 3660,
"syun3": 3661,
"syun4": 3662,
"syun5": 3663,
"syun6": 3664,
"syut1": 3665,
"syut2": 3666,
"syut3": 3667,
"syut4": 3668,
"syut5": 3669,
"syut6": 3670,
"taa1": 3671,
"taa2": 3672,
"taa3": 3673,
"taa4": 3674,
"taa5": 3675,
"taa6": 3676,
"taai1": 3677,
"taai2": 3678,
"taai3": 3679,
"taai4": 3680,
"taai5": 3681,
"taai6": 3682,
"taam1": 3683,
"taam2": 3684,
"taam3": 3685,
"taam4": 3686,
"taam5": 3687,
"taam6": 3688,
"taan1": 3689,
"taan2": 3690,
"taan3": 3691,
"taan4": 3692,
"taan5": 3693,
"taan6": 3694,
"taang1": 3695,
"taang2": 3696,
"taang3": 3697,
"taang4": 3698,
"taang5": 3699,
"taang6": 3700,
"taap1": 3701,
"taap2": 3702,
"taap3": 3703,
"taap4": 3704,
"taap5": 3705,
"taap6": 3706,
"taat1": 3707,
"taat2": 3708,
"taat3": 3709,
"taat4": 3710,
"taat5": 3711,
"taat6": 3712,
"taau1": 3713,
"taau2": 3714,
"taau3": 3715,
"taau4": 3716,
"taau5": 3717,
"taau6": 3718,
"tai1": 3719,
"tai2": 3720,
"tai3": 3721,
"tai4": 3722,
"tai5": 3723,
"tai6": 3724,
"tam1": 3725,
"tam2": 3726,
"tam3": 3727,
"tam4": 3728,
"tam5": 3729,
"tam6": 3730,
"tan1": 3731,
"tan2": 3732,
"tan3": 3733,
"tan4": 3734,
"tan5": 3735,
"tan6": 3736,
"tang1": 3737,
"tang2": 3738,
"tang3": 3739,
"tang4": 3740,
"tang5": 3741,
"tang6": 3742,
"tap1": 3743,
"tap2": 3744,
"tap3": 3745,
"tap4": 3746,
"tap5": 3747,
"tap6": 3748,
"tat1": 3749,
"tat2": 3750,
"tat3": 3751,
"tat4": 3752,
"tat5": 3753,
"tat6": 3754,
"tau1": 3755,
"tau2": 3756,
"tau3": 3757,
"tau4": 3758,
"tau5": 3759,
"tau6": 3760,
"tek1": 3761,
"tek2": 3762,
"tek3": 3763,
"tek4": 3764,
"tek5": 3765,
"tek6": 3766,
"teng1": 3767,
"teng2": 3768,
"teng3": 3769,
"teng4": 3770,
"teng5": 3771,
"teng6": 3772,
"teoi1": 3773,
"teoi2": 3774,
"teoi3": 3775,
"teoi4": 3776,
"teoi5": 3777,
"teoi6": 3778,
"teon1": 3779,
"teon2": 3780,
"teon3": 3781,
"teon4": 3782,
"teon5": 3783,
"teon6": 3784,
"ti1": 3785,
"ti2": 3786,
"ti3": 3787,
"ti4": 3788,
"ti5": 3789,
"ti6": 3790,
"tik1": 3791,
"tik2": 3792,
"tik3": 3793,
"tik4": 3794,
"tik5": 3795,
"tik6": 3796,
"tim1": 3797,
"tim2": 3798,
"tim3": 3799,
"tim4": 3800,
"tim5": 3801,
"tim6": 3802,
"tin1": 3803,
"tin2": 3804,
"tin3": 3805,
"tin4": 3806,
"tin5": 3807,
"tin6": 3808,
"ting1": 3809,
"ting2": 3810,
"ting3": 3811,
"ting4": 3812,
"ting5": 3813,
"ting6": 3814,
"tip1": 3815,
"tip2": 3816,
"tip3": 3817,
"tip4": 3818,
"tip5": 3819,
"tip6": 3820,
"tit1": 3821,
"tit2": 3822,
"tit3": 3823,
"tit4": 3824,
"tit5": 3825,
"tit6": 3826,
"tiu1": 3827,
"tiu2": 3828,
"tiu3": 3829,
"tiu4": 3830,
"tiu5": 3831,
"tiu6": 3832,
"to1": 3833,
"to2": 3834,
"to3": 3835,
"to4": 3836,
"to5": 3837,
"to6": 3838,
"toe1": 3839,
"toe2": 3840,
"toe3": 3841,
"toe4": 3842,
"toe5": 3843,
"toe6": 3844,
"toi1": 3845,
"toi2": 3846,
"toi3": 3847,
"toi4": 3848,
"toi5": 3849,
"toi6": 3850,
"tok1": 3851,
"tok2": 3852,
"tok3": 3853,
"tok4": 3854,
"tok5": 3855,
"tok6": 3856,
"tong1": 3857,
"tong2": 3858,
"tong3": 3859,
"tong4": 3860,
"tong5": 3861,
"tong6": 3862,
"tou1": 3863,
"tou2": 3864,
"tou3": 3865,
"tou4": 3866,
"tou5": 3867,
"tou6": 3868,
"tuk1": 3869,
"tuk2": 3870,
"tuk3": 3871,
"tuk4": 3872,
"tuk5": 3873,
"tuk6": 3874,
"tung1": 3875,
"tung2": 3876,
"tung3": 3877,
"tung4": 3878,
"tung5": 3879,
"tung6": 3880,
"tyun1": 3881,
"tyun2": 3882,
"tyun3": 3883,
"tyun4": 3884,
"tyun5": 3885,
"tyun6": 3886,
"tyut1": 3887,
"tyut2": 3888,
"tyut3": 3889,
"tyut4": 3890,
"tyut5": 3891,
"tyut6": 3892,
"uk1": 3893,
"uk2": 3894,
"uk3": 3895,
"uk4": 3896,
"uk5": 3897,
"uk6": 3898,
"ung1": 3899,
"ung2": 3900,
"ung3": 3901,
"ung4": 3902,
"ung5": 3903,
"ung6": 3904,
"waa1": 3905,
"waa2": 3906,
"waa3": 3907,
"waa4": 3908,
"waa5": 3909,
"waa6": 3910,
"waai1": 3911,
"waai2": 3912,
"waai3": 3913,
"waai4": 3914,
"waai5": 3915,
"waai6": 3916,
"waak1": 3917,
"waak2": 3918,
"waak3": 3919,
"waak4": 3920,
"waak5": 3921,
"waak6": 3922,
"waan1": 3923,
"waan2": 3924,
"waan3": 3925,
"waan4": 3926,
"waan5": 3927,
"waan6": 3928,
"waang1": 3929,
"waang2": 3930,
"waang3": 3931,
"waang4": 3932,
"waang5": 3933,
"waang6": 3934,
"waat1": 3935,
"waat2": 3936,
"waat3": 3937,
"waat4": 3938,
"waat5": 3939,
"waat6": 3940,
"wai1": 3941,
"wai2": 3942,
"wai3": 3943,
"wai4": 3944,
"wai5": 3945,
"wai6": 3946,
"wak1": 3947,
"wak2": 3948,
"wak3": 3949,
"wak4": 3950,
"wak5": 3951,
"wak6": 3952,
"wan1": 3953,
"wan2": 3954,
"wan3": 3955,
"wan4": 3956,
"wan5": 3957,
"wan6": 3958,
"wang1": 3959,
"wang2": 3960,
"wang3": 3961,
"wang4": 3962,
"wang5": 3963,
"wang6": 3964,
"wat1": 3965,
"wat2": 3966,
"wat3": 3967,
"wat4": 3968,
"wat5": 3969,
"wat6": 3970,
"wau1": 3971,
"wau2": 3972,
"wau3": 3973,
"wau4": 3974,
"wau5": 3975,
"wau6": 3976,
"we1": 3977,
"we2": 3978,
"we3": 3979,
"we4": 3980,
"we5": 3981,
"we6": 3982,
"wen1": 3983,
"wen2": 3984,
"wen3": 3985,
"wen4": 3986,
"wen5": 3987,
"wen6": 3988,
"wet1": 3989,
"wet2": 3990,
"wet3": 3991,
"wet4": 3992,
"wet5": 3993,
"wet6": 3994,
"wi1": 3995,
"wi2": 3996,
"wi3": 3997,
"wi4": 3998,
"wi5": 3999,
"wi6": 4000,
"wik1": 4001,
"wik2": 4002,
"wik3": 4003,
"wik4": 4004,
"wik5": 4005,
"wik6": 4006,
"wing1": 4007,
"wing2": 4008,
"wing3": 4009,
"wing4": 4010,
"wing5": 4011,
"wing6": 4012,
"wo1": 4013,
"wo2": 4014,
"wo3": 4015,
"wo4": 4016,
"wo5": 4017,
"wo6": 4018,
"wok1": 4019,
"wok2": 4020,
"wok3": 4021,
"wok4": 4022,
"wok5": 4023,
"wok6": 4024,
"wong1": 4025,
"wong2": 4026,
"wong3": 4027,
"wong4": 4028,
"wong5": 4029,
"wong6": 4030,
"wu1": 4031,
"wu2": 4032,
"wu3": 4033,
"wu4": 4034,
"wu5": 4035,
"wu6": 4036,
"wui1": 4037,
"wui2": 4038,
"wui3": 4039,
"wui4": 4040,
"wui5": 4041,
"wui6": 4042,
"wun1": 4043,
"wun2": 4044,
"wun3": 4045,
"wun4": 4046,
"wun5": 4047,
"wun6": 4048,
"wut1": 4049,
"wut2": 4050,
"wut3": 4051,
"wut4": 4052,
"wut5": 4053,
"wut6": 4054,
"zaa1": 4055,
"zaa2": 4056,
"zaa3": 4057,
"zaa4": 4058,
"zaa5": 4059,
"zaa6": 4060,
"zaai1": 4061,
"zaai2": 4062,
"zaai3": 4063,
"zaai4": 4064,
"zaai5": 4065,
"zaai6": 4066,
"zaak1": 4067,
"zaak2": 4068,
"zaak3": 4069,
"zaak4": 4070,
"zaak5": 4071,
"zaak6": 4072,
"zaam1": 4073,
"zaam2": 4074,
"zaam3": 4075,
"zaam4": 4076,
"zaam5": 4077,
"zaam6": 4078,
"zaan1": 4079,
"zaan2": 4080,
"zaan3": 4081,
"zaan4": 4082,
"zaan5": 4083,
"zaan6": 4084,
"zaang1": 4085,
"zaang2": 4086,
"zaang3": 4087,
"zaang4": 4088,
"zaang5": 4089,
"zaang6": 4090,
"zaap1": 4091,
"zaap2": 4092,
"zaap3": 4093,
"zaap4": 4094,
"zaap5": 4095,
"zaap6": 4096,
"zaat1": 4097,
"zaat2": 4098,
"zaat3": 4099,
"zaat4": 4100,
"zaat5": 4101,
"zaat6": 4102,
"zaau1": 4103,
"zaau2": 4104,
"zaau3": 4105,
"zaau4": 4106,
"zaau5": 4107,
"zaau6": 4108,
"zai1": 4109,
"zai2": 4110,
"zai3": 4111,
"zai4": 4112,
"zai5": 4113,
"zai6": 4114,
"zak1": 4115,
"zak2": 4116,
"zak3": 4117,
"zak4": 4118,
"zak5": 4119,
"zak6": 4120,
"zam1": 4121,
"zam2": 4122,
"zam3": 4123,
"zam4": 4124,
"zam5": 4125,
"zam6": 4126,
"zan1": 4127,
"zan2": 4128,
"zan3": 4129,
"zan4": 4130,
"zan5": 4131,
"zan6": 4132,
"zang1": 4133,
"zang2": 4134,
"zang3": 4135,
"zang4": 4136,
"zang5": 4137,
"zang6": 4138,
"zap1": 4139,
"zap2": 4140,
"zap3": 4141,
"zap4": 4142,
"zap5": 4143,
"zap6": 4144,
"zat1": 4145,
"zat2": 4146,
"zat3": 4147,
"zat4": 4148,
"zat5": 4149,
"zat6": 4150,
"zau1": 4151,
"zau2": 4152,
"zau3": 4153,
"zau4": 4154,
"zau5": 4155,
"zau6": 4156,
"ze1": 4157,
"ze2": 4158,
"ze3": 4159,
"ze4": 4160,
"ze5": 4161,
"ze6": 4162,
"zek1": 4163,
"zek2": 4164,
"zek3": 4165,
"zek4": 4166,
"zek5": 4167,
"zek6": 4168,
"zeng1": 4169,
"zeng2": 4170,
"zeng3": 4171,
"zeng4": 4172,
"zeng5": 4173,
"zeng6": 4174,
"zeoi1": 4175,
"zeoi2": 4176,
"zeoi3": 4177,
"zeoi4": 4178,
"zeoi5": 4179,
"zeoi6": 4180,
"zeon1": 4181,
"zeon2": 4182,
"zeon3": 4183,
"zeon4": 4184,
"zeon5": 4185,
"zeon6": 4186,
"zeot1": 4187,
"zeot2": 4188,
"zeot3": 4189,
"zeot4": 4190,
"zeot5": 4191,
"zeot6": 4192,
"zi1": 4193,
"zi2": 4194,
"zi3": 4195,
"zi4": 4196,
"zi5": 4197,
"zi6": 4198,
"zik1": 4199,
"zik2": 4200,
"zik3": 4201,
"zik4": 4202,
"zik5": 4203,
"zik6": 4204,
"zim1": 4205,
"zim2": 4206,
"zim3": 4207,
"zim4": 4208,
"zim5": 4209,
"zim6": 4210,
"zin1": 4211,
"zin2": 4212,
"zin3": 4213,
"zin4": 4214,
"zin5": 4215,
"zin6": 4216,
"zing1": 4217,
"zing2": 4218,
"zing3": 4219,
"zing4": 4220,
"zing5": 4221,
"zing6": 4222,
"zip1": 4223,
"zip2": 4224,
"zip3": 4225,
"zip4": 4226,
"zip5": 4227,
"zip6": 4228,
"zit1": 4229,
"zit2": 4230,
"zit3": 4231,
"zit4": 4232,
"zit5": 4233,
"zit6": 4234,
"ziu1": 4235,
"ziu2": 4236,
"ziu3": 4237,
"ziu4": 4238,
"ziu5": 4239,
"ziu6": 4240,
"zo1": 4241,
"zo2": 4242,
"zo3": 4243,
"zo4": 4244,
"zo5": 4245,
"zo6": 4246,
"zoe1": 4247,
"zoe2": 4248,
"zoe3": 4249,
"zoe4": 4250,
"zoe5": 4251,
"zoe6": 4252,
"zoei1": 4253,
"zoei2": 4254,
"zoei3": 4255,
"zoei4": 4256,
"zoei5": 4257,
"zoei6": 4258,
"zoek1": 4259,
"zoek2": 4260,
"zoek3": 4261,
"zoek4": 4262,
"zoek5": 4263,
"zoek6": 4264,
"zoeng1": 4265,
"zoeng2": 4266,
"zoeng3": 4267,
"zoeng4": 4268,
"zoeng5": 4269,
"zoeng6": 4270,
"zoi1": 4271,
"zoi2": 4272,
"zoi3": 4273,
"zoi4": 4274,
"zoi5": 4275,
"zoi6": 4276,
"zok1": 4277,
"zok2": 4278,
"zok3": 4279,
"zok4": 4280,
"zok5": 4281,
"zok6": 4282,
"zong1": 4283,
"zong2": 4284,
"zong3": 4285,
"zong4": 4286,
"zong5": 4287,
"zong6": 4288,
"zou1": 4289,
"zou2": 4290,
"zou3": 4291,
"zou4": 4292,
"zou5": 4293,
"zou6": 4294,
"zui1": 4295,
"zui2": 4296,
"zui3": 4297,
"zui4": 4298,
"zui5": 4299,
"zui6": 4300,
"zuk1": 4301,
"zuk2": 4302,
"zuk3": 4303,
"zuk4": 4304,
"zuk5": 4305,
"zuk6": 4306,
"zung1": 4307,
"zung2": 4308,
"zung3": 4309,
"zung4": 4310,
"zung5": 4311,
"zung6": 4312,
"zyu1": 4313,
"zyu2": 4314,
"zyu3": 4315,
"zyu4": 4316,
"zyu5": 4317,
"zyu6": 4318,
"zyun1": 4319,
"zyun2": 4320,
"zyun3": 4321,
"zyun4": 4322,
"zyun5": 4323,
"zyun6": 4324,
"zyut1": 4325,
"zyut2": 4326,
"zyut3": 4327,
"zyut4": 4328,
"zyut5": 4329,
"zyut6": 4330
        },
        "merges": [
        ]
    }
}